memory_initialization_radix=16;
memory_initialization_vector=
D2E5,D534,E061,E1AB,DD45,D15E,D58B,D3C9,DAD1,D78A,DB17,DB14,F26D,E07B,CC9A,D46E,C34E,DEDD,C5EA,DABD,D479,CC6C,DDE2,E310,D8ED,E2E3,E1CC,DC11,D85F,DD95,D480,D689,D021,CC79,D582,EACF,DD32,E304,DEFC,E3FE,F52E,D5FF,E3A1,D9E0,D80B,E115,D313,CF56,D0CC,CD5C,D3B4,D5BA,DE6F,DA2D,DF2A,E301,DBE6,DDEC,DF8A,D3E4,D144,D11F,D790,C36A,C25C,C605,CFBB,D0FC,DDBB,D32B,CF60,D1A6,CB54,C974,C8B9,D985,C8B9,C850,D680,DA3E,D44F,C7EA,D6BA,D3D4,DBBE,C7E6,C748,CF62,CBF8,C69B,C2EE,CE17,D72F,CD28,CC5D,CACD,C83D,C6EA,C48A,D33E,CE93,CE36,D64D,D8E1,DCEF,C6BD,DB82,D739,CF44,CFAE,DAB7,DF35,DF51,E162,D484,CEA9,C2F9,CDB2,CA1A,D79C,C87B,D709,DAEA,D3CA,D770,D2FB,C6A3,D571,CAD6,BE23,C5E7,C202,C850,D7C3,CD5B,C41A,C0AA,C644,D278,D846,D1E2,CE93,C51A,D131,CA56,DBF2,C3FE,B637,C87A,C1B4,C6AE,CA45,CD3A,C891,BFEA,C362,C0F1,C38D,C2E1,C185,C663,C5AA,BD73,C7E6,C1D5,C3C9,C666,CC39,B9D8,CDC7,C2C3,CB0A,B693,C96B,C547,D22A,CAB8,D0D0,CE70,CBBC,C991,C711,C489,C5DB,C957,D256,CDC7,D493,D40E,C676,D936,D312,D4D6,CCD4,C876,BF23,C8B8,C800,CCD4,C972,C7C5,C8A8,CD0F,C9E7,B35B,C372,C9F5,CD28,C645,CA28,CC86,C2AF,C2F4,BC8C,B895,C0C1,C3C3,C982,D0B4,C29B,C708,BD2A,CDF4,BEC6,CD4C,BF7D,C8B8,BE64,CC22,CFE3,B973,C9DA,CF1F,BDAF,C143,C72A,CA28,C682,C135,C0BA,B982,BA60,BBB3,C87A,BE62,CCB8,C600,C0DA,C93C,BCF0,C196,CA66,BF41,C12E,C526,C7AB,C91D,C116,BCB5,C946,C64C,D181,BE7C,B240,C307,BF57,CFDE,C1D0,BEF4,C4A0,BE9A,BF64,D10A,C2BD,C4EB,D0CA,CA69,CA91,C90F,C254,C1A6,C686,BC81,B7D4,B0A3,BC50,C088,C030,BA71,BD17,BFC5,C7C3,BD5F,CB56,C7C1,C160,C6AB,CFD8,CF0E,D3D1,CF98,CC9D,B9CB,C4D8,BBAE,C08F,BA24,C426,BC04,C642,C415,D2EA,DB5F,CB72,CE76,C65E,C78A,CD94,BDA6,C802,C7B3,BCE5,C22F,B5A4,BB04,CC00,BD1E,BDA8,BF66,B065,C623,C540,BAD7,BCAB,C296,C888,C964,BA70,BF0C,CC88,C9C9,C23B,CB80,C140,CDFC,BF40,B4BF,BE4D,C4A6,C190,C480,CACF,C2FE,B68E,BF74,BF7A,B800,C415,BCF7,C5A8,BCFC,CF3A,C2D9,BB69,B3D1,CBCC,BAEB,C4AE,BF39,C270,C263,BC9F,BEF3,C9B7,C61B,BFB6,B192,BBE3,B5F4,BB7D,C223,C61E,C09F,C793,C032,BF83,BF6A,D5C7,BFCC,BBBA,C58E,C22F,BF73,B9DC,BD09,BCC7,BFC6,B59E,BC4A,C67F,BC94,C86E,BA7D,B902,BB74,BF57,B8E8,B746,BC32,BAB3,C02B,C12B,BFCC,BF13,BF79,BE01,BF7B,C578,C493,C0ED,C89A,C02B,C1E5,BF3E,B8F6,BE8B,C205,BDC2,BEA2,BD79,C2CD,CF11,C3F3,B73C,B69F,ADFB,B558,CD14,C808,BD1E,C221,B504,BCAC,B563,B497,BCC6,B3E9,C312,C4F3,C87F,BFE6,BE04,BD50,BD31,B115,B85C,BF28,C713,B8AF,BD4E,CC1A,BEEA,C0E6,CF31,BF58,C798,BB87,BBF4,BC7D,B688,BE76,C269,C63A,C0E7,CA52,BAB2,BBCE,B72E,C21E,B7CF,BF0E,C1D9,C3D0,C2C7,C1E8,B77E,C87E,B9B2,BE28,C8A2,BD57,BD62,B802,CD75,C457,C1C1,BEF5,BEA4,CB5C,C39F,B8FD,BA74,BB3B,C192,B94A,B9DC,BDE9,B9FB,BCD1,C023,BDEA,C43A,C693,BAFE,BE29,C760,CA63,BB25,B8A4,B95C,C971,C0B5,BC8A,C01D,B95B,BE3E,C176,B1D9,BDE3,C428,BE60,C622,BE21,B628,C640,C05A,B7C1,BEB3,C782,C58B,C551,C647,BAC2,C2B4,C3BA,BCC8,C498,C081,AE04,B493,B472,B6EA,BF11,C0B5,BB20,B743,B538,B6D2,BFD8,C57B,C8B7,C3E2,BC34,C1A7,C392,C268,C148,B2E7,B51E,B2C0,C1AF,C7FE,BF0C,C100,CF34,BD1C,B806,BF18,BA50,BF7F,B2B6,C540,BC56,C0F6,C09A,C2A7,C059,C242,C899,BAC2,BDFD,B375,BBF6,BF97,C60B,C099,BF28,C21B,C9A6,C12E,C3B7,CFAA,BF59,BB24,C709,CB71,D3C1,C046,CA99,C546,B39C,C746,BEDB,BD53,C4CF,CBDB,BE90,D165,CD5A,C2DA,CA1F,D00C,C7A5,C121,BE51,C25B,C1E7,B96A,BF6A,C087,BA78,BDA6,C364,C7DC,C721,CB7B,BD02,C371,BF76,CC5C,C1C5,C6E6,C471,C502,D0F4,C86E,C17D,C644,C4FF,C307,CB53,C0C9,CF53,CC22,C1B1,BEC7,C1D5,C9B6,C639,C61C,C7C2,CC5E,C583,C9CA,C0F9,C2DC,C190,C87C,C614,C723,C105,C861,CD96,BB76,C443,C06B,C664,CB21,CCE7,C54D,BBBE,C632,C800,C861,C88A,C3D7,C93A,C837,C948,C705,C0D4,B640,CC99,C898,C99F,C3CD,D044,C818,C45E,C66F,CC4D,C36C,C869,CCA6,C366,C92C,C437,CA5B,D15E,C445,CAC3,CABF,CE69,CC06,CA3D,D034,D114,C873,CA53,C887,CD10,C7D3,D0B1,CFE2,C9C6,CF35,CB79,C944,D131,CF4D,CC79,E8F7,CCE5,CDCF,CC81,C04F,DC77,D587,DF89,D18D,D486,D38B,D831,D57E,DB80,CA56,D28D,DF5A,D9D3,D85D,D567,DC6C,DFF9,DA41,D440,CD8D,CA7E,CE30,CAEC,D248,D5A8,D398,D4CD,D441,D2F7,DB11,D3B3,D9AE,DBB1,C94C,DC0A,D8AA,D1AA,D8EE,D072,DA60,D3E4,C782,D5D2,D5B8,D92B,D16F,D7AB,EE92,D3E3,DCFA,D0B5,D1A8,D631,E00A,CF6F,CB95,DC5A,D5C6,E16C,DB04,D6CA,D40F,D64E,C667,E082,D579,DB0B,D5AD,CDD2,D528,D25D,DCDC,E04E,E28D,E981,E516,E47B,E61F,E8D1,ED6B,E460,E579,EB8F,E7DA,EC29,E2AB,E16E,E398,D956,E682,EA8A,EB1B,E0B4,E437,EE7A,F3ED,EE9F,EF01,DE7D,DCD6,E91B,DBA5,DF30,D790,D85A,D269,C7FD,DDA1,D67A,D225,E56F,D89E,DF8D,D598,DDB7,E1A7,D970,D6C0,D9E9,C9C7,D04D,C744,CB97,DCB2,CFC7,CAF7,D543,D3F0,CD0C,D998,E58E,E1FC,E5EA,EFA5,D644,D3BE,D1D9,C8AF,C25F,D7C4,D1E6,CBD4,C8C2,C795,CF50,D1A7,E0DB,D35A,C377,D061,C0A2,D110,D278,C993,D807,C95A,D767,CAE9,CC02,DC7C,D4DF,EE0E,E8DC,DD49,D4D7,D154,CA03,DB06,DA3B,E298,E677,DF89,C86F,CDA5,D05C,D65A,E7E8,E57E,EB0D,EFAA,0205,0FBC,0C99,FEB7,0AFB,126A,1C86,2938,1B19,22A1,2993,2C5E,0A3D,FEC2,0645,FB9F,1274,1621,109C,0290,0C1A,FEC6,F424,F239,FFC9,EB40,E047,DCBA,DF60,E878,F9D8,0178,0CE4,09F7,0F30,12F6,0733,0B8E,1307,1491,0B2A,1495,169C,0B92,1435,1692,1A49,070E,0980,0F96,0ADF,F471,F343,FDA6,0E13,13BF,FE48,EB58,E5A7,F19E,E4E8,F101,F7CF,0BD9,EBD0,F8E9,086E,0BA7,095E,0421,FC50,ED62,13FE,FE7B,FD51,EF98,F76C,ED64,F14D,E6F5,EB36,04C2,03C5,F7D4,016F,29CB,2991,1F4C,20E1,2231,1F11,2005,2C40,1D49,2DC9,262F,1A04,22B7,1E3B,2D3D,2CD1,2A74,2EC1,2C21,25BA,2F68,2791,3EE5,2487,1C3F,23DC,2C76,29E2,20AA,252D,3D55,28E6,266D,2B68,2D2F,1EBF,213B,2631,34AC,2C08,191C,087F,241C,230D,2870,31FA,280C,2921,3377,2AB4,2448,2B1B,2AAC,222A,2F78,2860,29A8,23BB,1F19,271C,31F0,2514,3BCD,3216,3454,3267,3358,2451,35BF,3537,3CE1,3A4A,3A45,3132,3533,36E3,2E1A,2D8B,24BA,3474,3933,39E7,32A0,344E,3885,31DF,3CE6,36D1,2EFE,35BB,3299,27A7,2FB6,3937,300C,331F,4255,2DCF,37A4,2999,31C9,2D36,2F5A,2D72,344C,2861,25AE,382A,265A,26C3,2A3C,2426,1E44,2CB6,28F6,4010,3096,3B67,2FF8,2832,26A7,29BB,2256,21A3,3639,2F51,3900,3994,38BF,3B73,34C2,3857,286B,3A74,3691,316C,3582,3355,428A,3B44,399F,2ED9,3123,2D92,410E,3C39,3991,362D,4109,3AFE,3557,30F4,3990,348F,42DC,39E0,3B40,3BC8,3302,4986,3E3E,3DC4,3B2A,36F1,2CA2,3694,389E,42F8,36B8,3CFD,48B6,3D1C,4785,38E2,37F2,2AD8,370D,2BF2,3E0D,4003,3BF3,3489,348B,369B,3909,37CB,2ACB,280C,2F20,2DE0,3561,3071,29FA,1E8C,396D,368E,3CC1,3B85,3C0C,4116,25B0,3580,3062,3B02,30C9,35D1,401C,2E51,33A8,322F,3937,3187,3662,3C52,4453,3C63,3F97,3B04,31CF,4909,3EE3,30CB,32BB,38AE,387A,392F,37B4,35E5,3B9E,4869,4278,35D4,3AF7,31B3,3BB3,3448,41D2,437C,402D,47ED,448A,509B,42A8,3F10,39EE,38F1,3273,2EF9,396C,44B1,4330,403E,40E7,3D52,3DE0,4269,3B06,3FDE,3345,3D99,3634,4400,3FAD,4957,47A0,3D26,4020,30A5,4171,4170,31CE,419D,4689,39D9,396D,406C,3333,2F94,35D0,4376,3A64,3DE3,4C82,57CA,4F4D,439E,4808,3AD5,3E6C,36D4,3B1A,3C76,3584,3338,3414,3E63,2666,34F1,2651,34F6,2FDE,37CB,3C34,3A0A,3FA9,3BAF,3E63,49BA,3DD0,39F2,3BBE,2F45,2EFF,2D58,3AC4,3DED,3A9F,42C5,4427,3B72,4491,42AF,3F6F,42E1,488D,45DE,3DE5,479C,44A5,481B,4A93,415B,4227,3B2D,4681,4C3C,3AEA,4004,39FF,36A0,368C,36F4,3ECC,4296,3A8A,4185,43F9,45DD,414F,3DAE,3DB4,3A99,4048,3C67,3ED0,4606,46A7,4CF5,4168,4A18,3CBB,3EB1,45CD,3AF6,3FB6,3AA5,4275,3C87,40AA,3EEA,3B76,4222,3CE1,3B37,4609,3E7C,4161,450F,431E,47E5,4BFA,45F4,4038,3AEE,3DF9,396D,4467,3F0E,3757,331C,4030,4508,4DF7,4040,4135,451A,405F,3E0E,3E67,3A74,3A6F,40AE,4201,43CC,393D,40C5,4CA8,4964,431B,49F7,5777,30B3,4E4B,3AAA,3DD8,3D87,4B1E,34FB,3904,33FA,43AC,3D6B,3832,4B1F,3757,4126,4C51,4764,4287,401E,4379,445B,3C89,4760,457B,42C0,4709,431D,465C,4318,45CF,3BC6,38F1,48EB,3611,3E23,36AA,4682,3DC5,40F4,3DB5,3DC2,4B4D,4554,43CD,4718,3AE2,481F,444C,3A32,5074,3BE5,404E,3BCC,405C,47F6,404D,443E,446D,42D7,3A44,467C,45EE,4175,4241,417A,3303,3EBA,4BCF,4B5A,3BA3,4CC4,43DD,3A34,43F5,3F5B,3CD3,3680,3D05,3EAC,4323,4010,3C0E,3D9E,4BED,40CB,4473,40A3,46DB,3F74,3F46,3B6F,3828,3E3C,41CB,3B93,3787,477D,3321,4004,4C16,3B4C,40FA,3F70,35A3,3FC3,37BF,3C8B,424A,40E3,3F6A,4BF6,3804,5015,3EF1,403B,3F2C,48C5,535E,44CC,4660,428D,393E,3CAA,3FBD,3E48,3DA6,374B,44AC,40E7,45DD,3FC9,4866,3B1B,38CA,3DF3,3F7B,407A,3A2E,4847,396D,3C9F,3B31,3E75,3B0B,41A4,49D9,3110,31C7,31AC,3F4C,3BDF,4327,35FA,3E82,34FB,3B8C,3AC8,3EAF,381F,4268,3A33,39C3,365C,3697,426B,3C18,3D8B,48D4,4C67,407C,47D2,3B46,39C9,3C9F,4004,3C24,39C4,3F71,3AA5,4089,3F67,4C4D,4132,3B6B,3658,2AD4,43A8,3B53,4555,3DE8,40BC,3F4E,2E64,39FA,2CD9,256A,43D6,3E73,4136,4567,46F8,42C0,4949,36A6,3C43,459D,3EAE,38F6,325F,4545,39AD,428D,337B,3A26,43BD,497E,4A10,3E0B,36F8,3B60,3B82,3B70,446A,4103,3E14,3483,38CE,3F98,44E1,3C09,4493,3E18,3C03,3D69,3DBC,36E5,3CB6,362C,4827,3832,3491,3597,3C12,3D57,370B,3C44,3A07,408B,3387,39A5,32F8,2EB7,40B6,38FE,37B1,31CD,3A81,38C2,360C,36FE,32A4,372C,35C2,35A7,3126,3A73,3BDF,3650,3DF9,34DE,3FA2,3C51,3994,3335,35D2,3446,3821,3CD5,3A03,37A4,3FF4,3353,37BD,4170,331E,410E,3A19,4312,38DF,3BE6,34DA,409A,2D91,323D,361B,2EA2,409A,36B9,3AE0,37EE,351E,336B,342E,338B,3153,3398,3B96,3F64,256B,2D05,3353,256D,2C1F,2D1F,2FB2,33AE,2D31,3260,28C8,326D,2929,3C06,3779,2B32,2F0A,2820,2AE5,29F3,2E53,29F0,2701,1B8A,3884,2799,3266,2AE3,2411,24BF,1D56,1ED1,136A,20E0,25AE,2712,233F,31C6,2954,328D,2C89,30AB,2E48,31FF,28FA,28E4,2360,2D6E,24D1,25BF,304A,2516,2B4B,3416,2E4D,2149,2968,20C8,207A,2BB5,2C49,32E9,2FF4,31E3,31CD,2BAB,2ABA,1F4B,1EBE,2B3D,2B6C,2B86,386E,27C1,2B47,2029,36AA,264D,23DA,2DC3,25FF,2438,2978,28A7,30D7,2786,2B75,2E02,1DFC,1926,1F64,14D2,220E,1EA6,1C59,14C9,1121,0D28,1A98,102D,1301,1215,1FD8,1558,2555,1FBB,246A,1B80,11CD,1F3D,1795,04B8,031C,1859,1DE3,1698,1DE1,2B76,2E54,2525,2D13,365C,2BDE,1D19,2022,2BF2,307D,2CE3,28E0,25FD,2415,25C8,31BC,26B3,24DC,2CE3,3B95,2CF8,349C,36C3,2839,2EDC,2E1A,2B55,246E,1AAA,2CD3,18F8,0D79,1524,240C,2000,2BD3,2F2F,2A7B,305C,34F7,320B,2946,3E15,2AA1,2923,2EA6,2AA0,2EBD,380E,37E2,32DB,261D,2EA8,28EF,3205,3522,2BAB,2C7B,240F,2798,24AE,260C,145A,25B5,1FC1,2010,2CEB,28D1,225C,1F6C,1EC2,2267,34C3,1F8A,19A3,2146,1ECB,189A,16AD,0E97,FAD6,FFB4,FC9A,F8BE,FDA4,F4E6,E217,E6DD,E0E6,D86B,DF8B,E66F,FC13,FE8E,FF87,FADA,E8C7,EC22,E6FE,FBC9,02E3,074E,0E4D,0EB2,0FD4,1381,2714,1FD8,1F4F,187E,0CBF,FFAD,F698,F4D4,F765,FB68,F405,EF2D,EDD4,F11C,EFB8,ECA6,E040,F126,D9BA,E429,F566,F14A,F5FC,F698,FACD,0A84,0C98,F9DF,F804,F305,06C9,0653,08F1,1EEF,1F17,0BD2,0073,F840,02D8,0BE1,F870,FB2A,F475,F860,1396,FBB0,FE47,039C,05B0,0118,1290,0ED4,224F,2439,144B,03BB,FF6D,FB0B,016F,2D47,23B4,18DA,1609,21C1,178A,2B18,2BAB,1D43,1FA9,257C,19ED,18A7,0CF3,233D,28F4,32A4,27DE,2EC2,270D,250F,30C0,296C,29D2,296E,1E02,20C3,2B64,2783,2C06,2AAE,28CA,2B0A,2B5D,2233,18E1,2741,22AD,291D,2704,2331,1952,1BAC,2417,26F8,2C8B,2173,27A4,2D0E,369A,2C3F,2BDA,29EE,22C2,1F85,2A86,2BA7,24C6,1BDF,290B,317E,2F3F,2DE9,337F,3802,33B5,3563,2D12,1F15,2EAC,2C5B,32DD,31DA,352B,3DDA,3ABD,2523,3BA7,319D,2B85,2D96,29B5,30ED,3C0C,31B3,2FAF,3778,3C7F,382A,2D73,38C7,3DE8,371A,34E4,290B,334D,36EB,386C,2C27,2FC5,2D0B,349D,2314,30EA,2F87,1936,1E17,2DAD,2952,3066,2B39,2684,1806,29E2,3031,337C,34EB,26E5,348B,3164,2BE0,2AB2,2D7A,2961,303D,2E7E,3E75,3A92,3E34,3E75,33AB,313D,33BC,3559,3947,4788,3BFC,2D5A,3644,349B,2780,2D33,2E2D,29B6,28EA,3EFE,2FFB,319F,337C,3DD8,3757,3CC3,382D,26B7,2C7D,324E,35B9,3089,3EBB,486A,3ACE,31EC,387A,3049,3750,3326,3492,432D,3BFF,394A,390E,44D8,3AA3,357D,3138,2CA8,3923,3579,3079,3D56,3BFB,326D,3832,2E5E,36D3,34A7,3608,3092,347D,4259,37E8,35EC,2AE8,3377,4458,2EF2,3325,3B40,3DD5,3A1E,4309,36C6,3628,2859,3D89,3A9A,3B27,3E04,2E6D,3355,3C19,45C2,38AA,47BC,43B6,4062,42AF,3BFF,38E5,3F20,3AB3,38FC,3F3A,3BF4,3090,362F,3D0E,335C,3EC7,403B,3CFB,3D4E,34C2,3A84,3A45,3A22,3BA1,4661,4645,4084,495F,40E3,3969,406C,3DCA,3759,4632,36FB,35FC,41B6,3998,43FD,41D4,3A86,3F55,440A,3887,4085,486A,3030,3204,3536,45C7,3D65,3EC7,4653,3734,3439,3794,3541,3416,489F,3674,4114,3852,3AE6,3ED4,44BC,3CB2,3F3A,3A40,3DB7,4544,3AF3,49ED,46A4,3834,492F,3677,3766,3EEA,386C,3E20,4237,3FB4,420B,313D,2D0D,3957,1BFA,3329,375F,35B4,3C04,3FD7,3EFB,4908,41C8,3C12,3FC8,3A28,3409,2E9F,33B0,3273,3FA4,3DB6,413C,37D9,3F97,40EB,471A,483C,3BA4,3C33,3DD4,48DB,4618,3C13,40D5,446F,40F2,456E,3D22,3FEA,481B,4B00,4032,40BA,3B40,3808,3E9E,3A3F,3BCF,3F31,3B78,3A31,4388,4143,3D4B,3ED9,4879,3A3B,3F7A,3E7D,3D07,3AD4,45B0,45A3,43C9,443E,4593,3A2D,35E9,44E2,4728,3CBE,3D91,3CE2,405D,3F87,3EB3,41BE,3CD5,3CE7,47B1,4043,3EA8,3CD6,4066,491B,472A,302C,4252,4CAA,436C,4FDF,4AB1,38B8,3581,3D6C,3E19,48E8,4902,485C,3D34,41B6,3FED,3CE4,412B,3587,3B23,36D5,4100,42AE,3A0C,3AEA,3EFC,4192,44DC,38E7,3B25,4736,36FF,3BD0,421B,407C,3A9F,456B,3A26,3BF4,3E48,35D2,3E41,45CB,4068,45BF,3E6A,456C,4C37,407C,49B0,474D,4215,43D1,475C,4BE0,4822,3F8F,3C91,3BF3,4413,4DD0,39E3,3FD5,4234,3BA6,39F7,4226,3792,428A,4375,48E4,4732,43E4,4014,3EC1,410F,43A0,44D2,431B,59A5,4513,4855,4495,3DAE,4065,3B30,39EC,45E9,4495,4D96,40A6,4427,3D6D,474B,44AC,415D,4A26,3E4E,3F2A,4796,4814,4557,51C0,422C,4A6C,3B14,45E4,41A0,37B9,3C63,4605,4277,3539,3AD1,341A,3EA8,3E54,4C1D,3EDF,4923,3620,3DA3,407F,3ABC,3ED9,34E7,44A3,421C,3EEF,44A8,4452,45E4,3B72,3BF2,4236,42A9,493D,44E8,5053,485E,3B5D,42E8,393F,4B50,337F,39AD,4230,3740,4316,40C6,47D2,3F2D,3D09,3A81,39D0,4418,4F04,45D0,410F,4378,36DE,3C1B,4935,3F6D,4355,4295,4FB6,3EBF,45F8,3FF8,38CD,4632,3E17,3C85,3AC5,3005,3A5A,308F,3EF0,41C1,3E80,3549,31F6,41DA,3779,41B7,452E,3BAF,3E75,3E22,3D5A,412D,4504,3E70,3FDB,4A81,4093,477E,3B9C,4222,4104,3EF4,4A95,3ACC,3F83,3B56,4233,531B,4775,434B,3568,3D6B,48CC,3B8F,3C0D,3FA5,4059,371B,3A5F,41F3,43E8,38E6,412E,369E,35CC,3BBE,344D,3CEC,4B1B,3FCA,446A,3DAE,3F13,3CD1,425C,4157,3A8B,34DD,3D8D,3782,33E5,3A29,36FB,32BE,3EBF,4063,3C99,316C,4223,33B9,44C9,39D5,3365,3D0D,3C0E,3E98,4769,4260,41EF,38AD,3775,40E3,3566,3CEA,3D48,430E,3C42,41AA,3BC2,321A,3BA0,39EC,3805,4008,3B9C,3A1B,3415,2F64,2DA2,3798,3116,38AF,3DC6,358E,2B67,3765,3A27,2D71,2F9A,3357,35DA,3BFD,31AB,33EA,3847,3675,3820,3576,2E69,3DBA,4118,3C30,38F6,3976,3441,2CAE,4030,3907,3D57,39D6,3841,3052,480C,3899,2C93,3AB4,3B55,2F53,3C66,34AD,33FB,38DA,2943,2967,3015,3FA3,39CC,3286,2D6C,376E,2B7A,3797,3BAC,2C8E,3993,302E,428C,2EA9,3452,35D4,2D2F,2D16,2DCE,3165,34D4,3529,380E,33E7,3B7C,3CCC,347A,3CF9,2789,2844,26A8,1F05,1F36,36BB,3335,21A1,267D,280B,2A92,26E6,1E8F,26D3,2B4D,1B00,24AB,20AC,2783,2453,2098,208C,3231,2FB1,2B6C,35EB,2E19,3447,232C,2417,23A6,2DF4,2E15,1BCD,16D7,2CC9,2490,2C77,302A,376E,22B3,1F4F,2BFD,31E3,23D1,2FA0,247A,2909,35A0,2D5F,1E6F,1FCE,2570,1EFF,2E2E,26AA,29C4,27F2,2ED9,3132,292B,3015,36A4,29ED,2E71,334D,293D,2FC9,2434,2A42,2D43,30B5,21EC,1FE1,1847,2571,199F,1FBE,167E,2338,2092,2286,2000,1D87,13E9,14F8,18AB,233E,139F,29F7,2653,1C6A,1E62,19E4,1253,2796,0D15,0EC7,1D93,0DF3,1ACC,1B20,2B24,2561,1A27,1B76,2BF5,3856,24EF,2A89,22D0,2340,299A,216B,2376,2163,2419,23E7,26EA,2354,2EF0,33EC,3312,2F72,3CBA,2C44,2FF7,3397,2466,2CF5,2BC7,268A,350A,10E2,08A3,1AE3,211C,21D7,2BE3,2DF3,3BBC,2C96,2FC9,349E,38A1,390F,2E56,2C54,2923,197A,28CC,29CC,2914,2F52,38D8,216C,2E9D,321B,3263,326D,2E76,2D43,2C9B,1E57,19FB,2761,2F45,2460,2C1A,232B,1C1F,1928,1315,1E2A,2601,2F9C,2665,1DE7,0F05,1D06,1514,0C9C,05A6,ED5F,FEE8,FC85,FA23,F8D8,E440,E249,E2BD,E30B,DFE2,D4D0,EFC3,FB11,0762,FDDC,EEC4,E61D,F1A5,F8FC,FA3F,09F3,0A7F,0C15,FE07,0BAB,1AF0,2898,2BE2,235F,045D,FCFA,FE7A,EDB2,FD04,0115,F051,F405,F639,EBB9,E3A6,EA86,F1DD,ED0A,EC79,EB4D,E9A2,ECB6,F9EA,FE99,04A5,0BC5,0D38,F01B,F6F7,FE83,0049,0FD4,0EB3,1A11,10F4,1DC2,058F,0059,0562,0924,FE58,F5DA,0217,08F5,FEA7,0682,FF87,06F3,00EB,095A,139D,122B,1CE9,16C7,06A0,FEB4,01DE,FCEE,016F,DD4C,D4B0,E432,D7E3,E52B,E6C7,EB9A,D058,DE4D,DAEB,CEBD,E349,E8A1,E6B7,D8B2,D513,CAF4,D44A,D22B,DFAD,D7FD,D8EE,DBBA,D63D,D880,E45A,DB13,DFFB,D601,C9D4,D354,CE2D,CAA0,DB4F,EECA,E655,D86F,DAF3,D9CB,DF52,E9C1,E86A,DCD9,D061,D23E,D087,DC83,D12D,D50C,D234,CEBD,CBA3,D475,D2C3,D941,DE0A,CA4D,E44F,DA51,E47E,DC1F,D865,D1D6,C621,CF18,C73D,D161,DC60,D7C3,D42A,CCAB,CA7A,C574,CDB9,CF31,CA7E,C7F2,CC94,D2E4,D42C,D117,CAF8,CC82,D2CE,D470,CEDC,D2AB,D34B,CDD9,D199,C115,C4AA,CC48,D4C3,D0D0,D24C,C5B2,CA0E,BE92,D22C,C438,CB58,D83A,DC4B,E116,D19C,DC7C,D952,DF3C,D00B,DD56,D044,E4FB,D4B7,D47E,C842,CAF0,CBF4,CCD1,BB3E,D38B,CD95,D676,D077,CBAE,D44B,C2AE,C8A4,BD7D,D861,C823,C514,C062,C87B,CA48,CB85,CC31,C718,C6D4,D0E0,C9BB,CD3E,C4C8,CE5C,D1B2,CFB4,D4AE,C628,C1C9,C47F,C547,BB10,D17E,CEF2,CE43,C0D5,CBA0,BC9B,CEDB,BE09,C279,CC0A,CAD4,CD12,CD3F,D422,CA91,C3BC,BC88,C2A5,BB5B,C125,C680,BE8C,CF2B,D082,CFB3,CE7D,C562,C514,C14A,CB6E,C661,C468,BDFE,D131,CE82,D2A8,D683,D472,CC40,CE95,C7A7,D253,C241,BFF6,B3D2,C26F,CB10,C68C,C686,C1E2,CE00,D00A,C317,C2FF,C967,CBFB,C43C,C611,D257,D0D8,C6FC,BC42,B758,CF87,CDEA,CC1A,C8FD,BEB0,C8C6,C429,D035,BEEF,C8D1,BDA3,C599,BBB4,BBDE,CC32,C8E0,C0AE,C7F3,C782,C430,C7FD,BF86,C661,C480,D0EF,B77E,C50E,B9AD,C16B,C343,C071,CF1B,C4B5,BFBB,C26E,B854,C856,CE12,CBC9,C223,C2CF,C549,BC12,C334,CBE5,C65A,C529,BF1A,B9AB,C42F,C760,C01D,CB0E,C7D4,CE79,C660,C1B9,CC2F,C244,CFE1,CA33,D52A,B8D1,C296,BFF3,D1F5,C022,B82E,B727,BDD4,C4A7,C4C1,C571,BF59,C48D,BD88,C847,C150,C49E,BDEE,C6A2,C902,C9DA,CDEA,D14E,D129,C5F5,C035,C13F,CBC8,B25F,ABB3,C53E,BA88,BECD,C625,C5FF,D35E,D353,C622,C600,C225,BBC0,C453,BC24,D136,C17F,C603,B431,C416,B98F,AC00,C5AF,B4D7,B4A7,BBCD,B59C,BD08,C228,B888,BA49,C7A9,C188,B9A5,CD92,CA65,CA8A,C958,C079,C3E9,B587,BA83,CD46,BFD6,C62C,C244,C46C,B245,BB11,B8E4,C014,CE67,CB3B,C3D2,C710,C016,C2E7,C263,C2CC,BEE1,C95C,BEEF,B815,BEA9,C49B,C0BC,B927,C954,C980,C26C,BF3F,B91D,BE09,C3D3,C3B6,C175,B533,C8BB,D365,BDD4,B79E,C14C,B541,C1FB,B587,C203,C26A,CC67,C383,B99C,C1CF,C09F,C517,BD9E,C980,C516,C324,BEC5,B93C,C88A,BD1A,C536,B230,BE20,B642,BBDD,CEB8,C90A,BBC2,BC94,BDA1,C458,B6E2,C414,C222,BC7D,C3FF,BF15,C1A5,B58D,B40E,BE9E,C08D,C136,BD03,B2B3,BCC9,BA1D,C6E5,C8B3,B809,C100,C497,C309,BF81,C766,B9B8,BF92,B647,BFD0,C521,B735,C25E,CF34,BB30,C5DB,AFB0,BC49,C883,B115,BD2F,BF0E,BDF7,C680,BDB2,B2EF,BB9A,B1F0,C772,BD2F,BFDB,BA59,C47C,B142,C02C,C51C,C2FF,B8AB,C3C4,B60E,BD56,BD32,BBED,C1AE,B4A9,BD8D,B7CC,BA86,BC32,BF21,C7D5,BA79,C044,B54E,BE41,C348,B9D7,BEAD,C721,D11C,C744,C18A,C096,BB79,BEF5,B5AD,C34D,BBA8,BE81,C603,C315,C171,C2B6,BB73,BE8C,BD69,C584,B91B,C344,C335,B3AD,C017,BBAB,BB96,BE06,B993,BA5B,C531,BE64,BD77,C431,C428,B731,C62C,B857,C988,C8DC,C4DC,B988,B0AD,B7DE,BBED,BF3B,C876,BBA5,C5CA,BBA3,B946,B8A3,BE44,BE55,CB1F,B957,C2CC,C4E0,BD3C,BC6B,C696,B8F8,BC71,C682,C9A3,BE60,BA29,BEEA,C2FC,CA75,C409,BE00,BCE4,C54C,C173,B649,BC0E,B84D,B385,C03D,BFE6,C2C3,C29B,C395,B679,C347,C134,B88B,C504,BB49,C780,C402,ADDF,C399,B1FB,CBE4,B6DD,BDFC,BCAB,B9DE,BDE8,C9B6,BA4B,BE1F,CD14,C591,B80A,C513,BC2A,CDD2,BC4C,CAB4,C518,D00C,CE2D,BD44,C756,BF6D,CAF6,C289,CC6C,C14D,BDF0,B791,C6F2,BB96,D112,D34C,CCD3,C911,C69D,BCB2,BC26,C2C1,C808,BB8F,C2C8,BF72,C33A,BAE0,BF42,BFF5,BF73,C291,B961,C16B,C2B7,C3CA,D055,C06D,CB3B,BDA4,CD93,C576,C2B4,BC7A,CD18,BAB9,C3E2,CE65,C4C3,C5DD,BCA1,BF65,B553,C3A2,C6ED,D48E,C19E,CAA1,C6A4,CC6B,CAA1,CCA5,C6B8,C2AB,C3C1,CA57,D7E1,C47C,CA0E,CBE9,D07C,CAAA,CD7F,CF33,C695,C707,CAE7,C153,D23C,BC4C,BD21,C913,CB08,D078,CF78,C474,CEC5,CD31,C218,CA23,C974,CA33,D090,D975,D89C,D1D8,CD45,BA28,CA4B,C4E6,C71E,CF6B,BE7A,D3B7,CD0C,CFBD,C4C8,D012,BF80,D2DB,B9F3,CC8F,CF26,C19E,D0AA,D01C,CB3E,C550,CE9F,CB65,CC56,CCA3,CE91,C53A,CAE8,CBF5,CEB0,D2ED,CE64,CF7D,D757,CD68,D6FC,E6AE,DDF8,D5BD,CC0A,DF35,D596,CD62,D619,CBF9,D76C,D4FF,DC1E,DA9E,DEE5,E42F,DD6E,D9EC,D69F,DEDC,DFBE,C986,D32C,C9EA,CB2B,DB02,CC79,D219,E48A,D6CD,D394,D5E1,E036,D467,D8E6,D435,DAA3,D3A8,DB3E,E398,CFF7,D7CB,E039,DCCD,CF70,E601,D205,E551,D35B,D405,DC13,DB3E,DE68,E1FF,D87D,DC15,D0D4,D5FF,E440,D0B7,E585,D077,D1D1,D62E,D725,E356,D517,DD9A,D64E,D44B,D362,E083,DFF1,E3C7,E7B2,EC91,E417,DAD2,E379,F387,EC66,D59E,EF3A,0492,E07C,EBD2,E82D,E99A,E017,DE1F,EE28,F27F,F033,E401,E3B1,F40C,D8ED,EA51,D69E,D9E5,D98E,D86A,D9C1,D8C7,D43C,D9F1,DAF4,DF9D,D900,D3F6,E018,E42B,DD05,E318,D8F3,D61E,DCD9,D23C,D9CD,D3CF,DDB5,CAA8,D5B9,C87E,D959,D595,CEA2,EC84,DAAB,D406,E9A0,F02D,E21D,E81D,D698,DCBF,D546,CBE1,D77E,D2EC,D40E,C180,D11B,CF44,D9CE,EBF9,E29A,CB9E,C1C9,D1FB,D006,D472,CBEA,C8D3,C8E4,D56F,DCDA,D5AA,CB03,DBE5,EDEB,EAF9,E72E,E2B0,E3DF,D126,D321,DDC1,DCA0,F07D,DE2C,E110,C779,D0F0,E0C6,DA13,F0D9,E7C8,F48A,EDA7,02E4,078B,06FE,F6A9,F8E2,0CF4,211F,27F9,157D,1E75,20A7,1E3D,FDF8,FEB0,F268,F84A,0CBE,1841,1172,0DC9,FDA0,FBB8,EB99,F60A,EF8F,F409,E22D,DB56,E0BD,E3F0,F882,FEA9,0DCB,07B1,FE4F,0883,10BC,04ED,0BA0,0BA1,0121,1458,0B58,0FC0,1886,192E,0BDC,05B1,1458,0793,F9FF,F3EE,F1EC,0C8F,031F,0782,0422,F7F9,EEE8,E2C2,F5D3,ED38,0442,03D1,EFAA,F920,F77C,085F,089C,F81A,F43C,F58C,FAF9,0AA8,F851,F71E,E769,E581,E713,E9D3,EFEB,FAD3,0510,036D,016F,D5F0,D5DE,E0D2,DC3B,E37C,E6BE,DCA4,D8F6,DD6A,E580,D96B,ECC9,DA0F,E5C3,DF63,DD25,D460,C770,D33C,CDF0,D252,CABE,D508,DF91,E064,DA0C,DBB0,CEE9,C580,CF2D,CE0D,D2AF,D307,D430,E61B,DEB2,E1A0,D981,DF2A,EE4A,EC5D,E52F,D4AA,D856,D2C1,D20D,DB60,D664,D7FD,D1AE,D722,D4AF,D8FC,D9C7,DA42,DFDB,CD40,D5CF,DE04,D6F6,DBA8,CD64,CC78,CD1F,CDC1,BD52,C6FB,CD8F,D4DB,D702,DC1D,C8D8,D850,CCF3,C37F,C9AF,C87F,D32F,D082,DC1C,D310,CF06,DB12,D1E9,CE91,D45E,C2F0,C91B,D065,C33E,CA1E,C923,CF1F,CA59,D3BB,D6A1,CBB2,BD92,C18F,D359,CFE1,C4FE,D2DA,DAB4,CEC4,D6F6,D423,E7F2,D36C,D476,D7B5,D350,D7AD,DDF4,CE0D,D3AF,CB01,CDF9,CC45,C0BE,CE04,DC7D,D515,D876,CF48,CA07,CAF3,C0F1,BF07,CAEF,BEE6,C359,C97E,CA6B,D0AC,D978,C83F,C5F3,BF15,C3C7,CAB2,CF10,CAB0,C941,D4B0,CC2A,CC10,CCA9,C148,C269,BFBB,CBA9,D580,C845,CE27,CF49,CBE8,C696,C611,CC05,C597,BB4D,C1EE,C5E9,CAC1,C8CD,C517,D316,CDA3,C0FD,C425,BD83,C848,C722,C27B,C935,C5C9,CB1B,CF3B,C35A,C8B8,C2B9,BFC2,C79D,BB03,D992,BB28,CB2A,D02C,D757,D73A,C244,CE8F,C9CB,C560,C4BE,C7D8,C13E,C53A,D50A,C87B,CD45,CC43,C54C,C108,C593,CA69,D213,C108,C87B,D753,CD85,BFBE,C2FF,B387,C5A4,C783,C567,C434,C40D,C2E3,C115,BEC5,CACD,C6EF,D0D3,C274,C37A,C74A,C000,C444,CFBF,C68A,CF66,C315,CA48,BA9F,C7FF,C2D2,C88A,C730,C235,C651,C4A2,C891,C660,C079,C643,B775,BEE0,C501,C380,C350,C855,C421,C69E,C979,C20F,BEDA,BC55,C5AD,C8AC,C2B1,BEFF,C025,C717,D270,C8BF,CCD4,C610,BE2A,C75F,C1AD,BD41,BE3D,BFB7,BEB5,BFCB,B8CD,B505,AFA7,C0D7,BA6E,B92F,B71E,BF08,C1C4,C10A,B347,BB68,C3D0,CAE5,C97B,C1FD,CBA7,C7E2,C41A,D2BE,D465,DB4B,CED8,C661,C4FD,BB24,C3AE,BE43,B9BF,BE2E,C155,C25B,C056,CBBB,DE65,D18A,CEFB,C459,BAA3,BE5D,BC83,C16D,C2B8,B9DF,BDFC,C631,C81E,C247,BC76,BBCE,C8B4,B6CB,C54D,BCE1,BB1C,C017,C8D1,BF00,BFD0,BEC5,BEDD,C414,C6DE,C428,B7B2,BDFD,B92D,BC67,B38E,BB84,C465,BF7B,C53E,C1AA,C2D8,BEE8,CCCC,BBEE,BC36,C27A,BF0A,C451,B830,CB72,C0B9,C4C6,C117,D269,BF28,B743,C0A3,C64A,B4C5,B28C,B4B4,C8CA,C975,BDF4,BC80,B99D,BA42,BBD1,BF9D,CD00,BCD5,C11A,C3E4,C27C,C121,D007,AF07,C36B,C513,C55B,B79E,BEA2,B4A1,B895,B0C3,BC2D,B8A8,C74B,BBDE,D010,BDD9,B49C,B99E,C695,C394,BC40,B685,BDBA,BABE,BA05,C5CB,C1DC,BE4D,BA31,BC86,C76C,CCF3,CBE6,C350,C495,CCDE,BBB2,C617,C7DF,BBDA,B6D1,C04D,BD29,BA0A,C607,BF00,C645,BE57,C8CB,BFA2,C149,C23E,C042,BFDB,B388,C1DD,BCEC,C905,B85E,BB17,BEF0,CDEC,CAE6,BD59,C47A,BA54,B862,C579,BC9E,C3A3,C033,BFC1,BB8A,BEE7,C179,B8A5,C586,B310,B98F,C0E8,BDFE,B737,B3F9,B8EF,AEB8,BAE7,BD6E,BB9A,BD9A,BA24,BF4D,C1D4,BAE8,BCB3,C0D2,BE51,BC10,BECD,C34E,C054,B491,B53B,BD08,B8F0,BBCB,C38C,BFD7,BAB6,C217,CAEE,B922,BDBC,C146,C01D,C007,B22E,BB6C,C38C,BF21,ABE6,B934,C4F4,C22E,BA06,BB3E,BC41,C651,BDAD,C482,C480,BB65,B7BF,C193,AD5F,BF3A,BD91,B966,D49C,BD17,B873,BED7,C29D,C1AF,C217,C6FC,BD92,BC7A,CBC8,C9AB,B88E,B5E5,BA92,BE4F,BBCF,C002,C275,C4C1,C47F,BCCB,B78D,B1B0,C105,B6BC,BA78,B8B1,AF88,B715,C35A,BAEF,C2B5,CC03,B702,BE32,C5E2,BBFF,C215,C1AA,C0B4,BB5D,B7D8,C3C3,BD39,B796,C831,BD37,CE86,C946,CE8F,B900,C24F,B9DC,BBD4,BCE5,C6AD,C100,BD70,C1D5,B87F,BCFC,C69D,BF00,BB05,BDC0,C558,BE6F,BFB2,BF06,C350,C5AA,BEB4,BF25,C3A7,BCD7,BE1A,C88A,C65D,C67D,CDAC,CFAC,D1BD,CA31,CF63,CAC8,B534,BE43,C93C,BE6C,B1D9,C0DF,C1A7,C3B4,C2A8,CD45,C9A0,B4F9,C4EC,C524,C255,CAEE,CDB2,BCC6,CCB7,C915,C73A,C8A9,BE7D,C0CC,CBCB,C5D3,C57F,BA4D,C2C8,BC9A,D099,C926,CC3B,C543,C1DE,C6C4,C330,C67F,C2AC,C7AC,C4A6,C37B,BFC6,C4DA,BBAA,C441,C902,C490,C302,B9F1,C415,C76B,CB22,C296,C766,C180,C19D,C38F,C305,BD26,CAD8,BD92,C849,D108,D088,CE04,C74E,C4A5,CD2F,C049,C61D,C265,C44A,BBF5,CF0F,CAC4,D06F,D080,C87B,CAF7,C658,C264,C8D8,C500,C4C0,CB4C,CC79,D0F5,D41D,D61C,D400,C8FC,D108,D6E2,C802,C2FA,C99D,C5E2,C86A,C783,C339,C2A5,CDDF,C0E1,C610,C922,C681,C231,D64B,C804,C45B,C65C,CDA6,C962,CA08,C9AB,C8A5,C755,D195,CDC9,CF79,DA05,CD64,DE2E,D6B1,DAC9,D731,D3D2,D511,D4EA,D480,D1E0,DD1F,D09F,D316,D477,CF48,DC16,D5CF,E749,DBFC,DB1D,CBBF,E15F,D7EA,C528,D8BD,D8C7,D160,D138,D752,D6E8,CDEC,DA9C,D2D3,DBD7,DEDA,DBAE,D69E,D34F,DD7D,D4E3,D682,DB94,CD36,E2B5,DA58,CD5A,DE38,E012,D459,D338,DA45,D68A,CE9E,E122,DAB7,E22F,D4C8,DB14,DC0F,D883,D4AC,E74A,E024,C5CE,E7D1,D065,CCC3,DAC9,DE1C,CF1E,D4ED,D78E,DA80,DD78,E104,E362,E13E,E71C,0145,DC36,ECF9,D7E3,D856,EBD0,E3B6,E1E3,EC89,E5CE,E158,E3E8,D99C,E35D,E9A7,DD84,EA88,F693,E984,E94F,EB19,F242,EACB,E8C8,DEFF,DEFA,E097,DA28,DD5A,D25F,D9C1,D4A5,DC42,DAC5,D773,D35E,DF81,D6EB,D0EF,E570,D614,D5B5,D26A,D10C,D48E,D6A6,DD35,CE35,D321,D3C0,CE2D,CD53,D248,D335,D244,D911,D495,E003,E934,E41F,E247,E280,D5B0,CE25,CE89,D766,CD6C,D0CC,C59E,CEB2,DCAF,D17C,D9B8,CF52,C35F,D7D9,D4D8,CADE,C5A0,D720,CFC4,CEBA,CEEE,CD01,D792,E311,E1B4,DB79,E95C,CFF8,D1C0,D0CC,D2A6,E8BA,DF73,F008,E580,DBD5,CE39,DF56,E021,E5B2,E9BF,EB4D,EA92,F499,0833,05EF,FEE3,0786,FB9A,10F1,1F4E,24CE,1B77,138A,1CE2,166B,0497,0024,F820,FE69,0CC2,0ADF,111C,0A69,0BD5,F758,F36D,F58C,FF26,F345,E33F,D26B,E3F7,DEE0,F494,FD3D,120F,0C0A,FF86,0C6F,0A32,1713,0D16,15E6,1474,0F9E,14F3,0796,11E5,299C,0D89,116C,0B05,FFB0,02FD,F5F4,F837,06A6,1A2A,0851,F559,EA61,EC1C,E983,F2B2,F650,F5E3,0078,F230,F07F,0706,0431,FB80,0142,EF5E,01B5,0C20,00FD,F827,FCF3,F823,EFEA,E6B7,F06D,F1D8,F56F,07EA,05BB,016F,2A38,234F,1E7B,265C,1B73,3150,2B97,238A,2802,3177,2DDC,2058,1208,1E04,2416,2CFD,3610,33D3,3760,294B,35A4,2609,3726,1E68,2088,2BE9,2B9F,268A,24C1,307C,22CF,24F4,3105,2C2F,2908,141E,2E05,2DAF,2A6E,15C9,14FE,1673,1FE4,3C78,3098,29A5,2C66,2CD4,33A8,2D4F,2B8D,24FA,26C5,2D0D,271D,29D8,3394,276B,24F9,1F6C,2E16,3159,2D05,34D7,3B0F,3071,303F,2652,32A7,2FB1,3AD1,39D6,3E78,311F,3422,39A3,3299,2F6B,22E8,2C6C,3BA9,35FA,26C4,2C31,2C97,3195,2B72,2347,2941,363F,42A4,35B1,2EC4,3B5D,314B,2FB2,35E1,3983,34DD,37A4,26AD,2861,305A,2B86,276F,22F9,1DD7,28E3,39F9,266A,3327,26A2,1EFD,2645,38FE,2C11,32B9,2EFC,3CC4,33E1,2298,2943,2B7C,26FE,270B,3F43,37BB,386F,30C6,451C,32C4,3D1D,31BD,3747,3755,3E96,2C76,3485,34EB,3369,3EA9,2D18,300D,2DFF,333D,3C08,3E7A,3D44,3831,2C9A,32D1,3609,3396,312B,2B33,35C4,35D4,3BEF,3BA0,3B81,33C4,3F77,3578,3724,361D,3C27,3328,3436,37F6,4035,3C85,3CD7,3F21,2E81,36B0,33C5,397C,35E2,387A,316A,3721,40F5,3C46,4014,42B8,370F,2FFC,2998,3483,3531,3427,27F2,272A,313B,280A,3F1C,363B,3CD7,3B47,33CD,3656,3475,2B68,35F1,3BD5,36EE,3F4B,34E1,3373,3982,3993,3231,3A16,47DE,47F0,3561,34A0,3DCA,2C36,3F0D,390F,37F9,39FB,3B02,3367,3C22,360B,38F6,3BCE,34DD,347E,42AB,3449,315F,3DFF,3CBD,39C1,3EBD,3D3B,455E,42FC,3409,39FE,42DC,372E,3F17,3392,3656,3FF9,411E,433F,380B,3D76,46F9,428B,403D,420B,393D,43AB,2F86,3EC7,35B9,4E0A,3FF8,424E,3757,3704,3F3E,3A19,42FF,3EF0,3DD0,4632,3632,46A1,3E56,29F6,3482,400C,4F16,4CE9,4299,4064,47ED,4140,3545,46C0,3572,408F,433C,3F4B,4102,3C12,3FF6,3668,3EA1,2DAF,3102,3235,2904,30B8,36FA,3988,4073,3BD4,3FB5,43AA,467C,3700,3EEA,390A,32FA,2039,2D8F,3957,3680,3D84,3076,3CF7,3213,3D77,314F,42B1,4329,3C5D,3CB5,3C09,4789,4451,51CD,4878,3D9E,3915,3F54,3BBD,3D6A,3BFC,380C,3540,30F7,3B75,370F,3560,3ABB,3835,460B,4381,3839,413A,3DE8,4002,3CCB,3A3A,3F22,3E8B,3A8B,3AFD,4305,39CD,383F,3EE2,3CBA,29CF,3F5C,3853,3771,4580,382A,3E64,41CD,4165,3392,3270,3EE8,4312,3DCC,4C0D,3A5D,3B02,3FB9,3B10,4345,3DF7,3C73,3EAD,434B,45FE,39F8,3F9D,3C53,40C9,4540,3E78,4512,3C25,4790,432C,3AD7,4561,3E82,3EF2,3C4D,43C0,4549,3A8A,3B09,433E,4442,3FB8,42E4,3D90,3F7A,4007,3A11,319F,482A,352B,442E,435A,3F1E,3D70,4437,3BEF,35F5,3702,4853,3FDF,44CA,4482,417D,4668,3D86,3AD7,3CCB,4568,3F15,43D6,4544,3657,42FB,3D2D,385E,3E9C,487C,37A6,3258,4B78,3CA5,3AA2,3D28,400F,4C6B,3D4E,4617,4B1F,4053,43FB,3EFB,40E3,4300,461D,3DFB,3C78,32F9,34E8,3889,370A,3CC8,38FC,402C,38FA,44A2,41F4,3450,44D8,3FCA,4AB3,49CA,4140,44F3,393D,4353,41FC,4595,43D9,40C9,3C87,46B3,3E3F,4EFE,3FC9,3D8F,3A54,3834,3B24,39B2,3A7A,2F9C,3C9B,429E,4345,3F28,378D,4038,457A,44C8,5263,441C,3894,3A4F,396D,3AD3,3B4C,3B85,4E20,4184,3F32,3ADF,4413,3E68,4333,425A,4264,3A8A,3E72,4597,3C30,4CE1,3F94,3D30,3CFE,3D58,3FFE,4527,4918,46AC,47EC,4D82,45C6,47F5,3DBA,3EA4,4CE4,3F71,3FB6,2F0E,428B,4473,3BC4,3D39,48E6,3936,3951,45F6,43F4,43E2,3E4B,385A,4299,3EDA,425D,438B,3848,4060,34A9,35FB,3FF6,3FEA,343A,493B,4DDB,461F,3784,3FF2,3C96,4688,41C5,35D2,4A71,469C,4494,487B,3EE2,4ECF,36EB,38DC,436C,35B8,3EB8,3AA6,454E,451E,4177,4A47,46CB,4010,3FB6,41DB,3E31,33C9,3D80,4A63,36BD,3AA2,3F0A,3178,36B2,3900,3FEB,3DCC,3FDE,42FF,3CB4,4268,3DF5,3F3B,3F06,33D0,3E4F,3F8D,3514,3C12,3940,41E2,428D,41A7,389C,3D09,364B,3A51,3FD9,3B72,34DF,38A7,35A1,3C18,4387,40CD,42CF,369C,420D,41B1,3CD3,36B1,48C2,37C7,303B,3B21,3803,4F03,45B6,3E20,3A2C,390C,3FA5,3C72,32E8,4083,3AEC,376E,3A6D,374B,3B86,3597,38D2,349C,476A,3CB3,33C9,3C49,2A58,4296,3E4D,36E8,2C10,34AA,3048,2ED5,3770,3DD6,3871,3CB0,3C95,42BB,4279,3F92,34C3,3C1D,3DCE,391A,3E5A,3EEF,3827,4073,403D,3985,3542,3476,3C0D,3A31,33B0,3661,2FE7,3781,2D52,358B,367D,4679,43A3,3D16,3C92,378F,2E88,3AC2,3693,3177,34FD,3485,32D3,33DA,34B0,3944,3AC3,3425,3538,31F7,3418,27CD,3453,2F49,350B,2FD9,3146,310B,2EC6,3A59,309D,2D3C,288D,229F,288C,382A,1D80,2BCF,2DF0,26F7,2E49,2831,1C6B,192B,21FD,21ED,1FC7,2515,21EF,2FF9,1D75,2D86,33AB,31D5,3244,25CC,2CC5,1CD2,1D09,2E8B,29E8,2CA2,24C4,3DD7,32CB,312C,3137,1C53,2022,2C84,2B2C,2A2E,31E8,36FD,30B6,2BE8,1B99,2FA7,2664,2230,2B2F,1F2A,2D5F,18F5,378E,3204,2C1E,2369,2922,273B,3625,2BE6,226D,309C,23E8,2800,2D69,2C99,2A05,2268,33D9,21EC,1E62,21EB,182D,1389,1405,2773,1F97,1648,1D29,204D,1727,15CA,1B74,1020,1DAA,1B02,211B,20D9,24A9,0F91,24A8,1A27,1279,07AF,1B16,0D4B,1F63,0FFE,259D,2E3F,294B,21FE,286E,265B,22D4,22DE,304F,1C84,28C9,2367,235D,2426,24F6,260D,2EF7,2154,3912,3136,2957,26DE,2C18,3020,2884,287E,2F27,2E6B,2FE0,26CF,207B,1DDC,12B1,2067,271E,2E79,35B5,2A17,27C1,3295,345B,3218,2F00,37B6,2CEB,2A25,271E,255D,28EB,2C08,3A1F,2277,38CA,3E65,3055,2634,2B64,2C23,2858,2F98,1F62,1E5C,142C,247E,2DEB,350D,24F4,3044,2452,159E,1CA3,2126,22D8,1FE0,24C7,2674,24B8,16B0,11CC,0884,029B,FBCF,F1B9,0380,FD35,EAB2,E750,E484,E652,DC46,DB30,DAFF,F1D0,0AB9,0572,054A,EC25,E42B,EB06,EFFC,004A,0B45,0D67,0F6D,0430,18D1,1DC8,296C,25D8,1E15,0B86,F789,F0D9,F90B,03E7,0019,E754,F1C3,F45D,E9DE,EA95,E4D1,E94C,E566,E72F,E753,E2CE,F18A,EEC0,F4D9,02B9,07FE,FBA9,FE93,FDC4,F592,0870,1461,0ED0,2014,1193,0D46,04A7,0972,1530,0129,FBD6,F6DF,0900,041A,0571,02E5,FE96,FE7E,FA9D,16FC,1725,14FC,1F32,1B9A,093C,045F,05FA,0917,016F,D4D1,DDB5,E050,E1F4,E204,D90D,CE39,DBDF,D945,D57A,D77E,DA40,E26D,DB38,DCA1,CB09,CE90,D635,CC27,D5D6,D88E,C9CD,D7D6,D2C1,DC72,D28F,DCB8,E214,D99E,DFEC,CF02,D7EF,D927,D3C6,D896,D8C9,D633,DE83,D9AD,EAF5,E8D2,DED3,DCDD,DBB9,C6C1,D6AE,DE66,CE3C,C9F9,D46D,CA31,D19E,D6FF,DEB3,D527,CEFE,CFA7,DD6E,D51B,DBAA,D1FB,DAC7,D1EA,C862,CEC2,CDE4,C599,C57F,DAF5,D139,CA49,C2F6,C978,CF6A,CB81,CCD0,C2F2,D2BD,CC8D,D75E,D50E,C97B,CBDC,D80D,CF6A,DA4F,D008,C43B,C168,CBF6,BE13,C484,CAFC,CFEC,CEC2,D0F3,D273,D518,CBE2,D280,C999,D44A,D615,D3D7,D658,D69D,D9C4,D797,D0E0,CA7A,DE33,D69E,DFE2,E541,D8BC,D322,CA2C,CC42,D774,D000,C786,CF14,CCEB,D042,C95A,CBCE,CCC1,C64B,C3A8,C768,BF71,CA2A,C02B,C972,C7CC,C983,CCD3,C14C,CA50,CB66,CEC2,C2C1,CB00,CC21,CBD3,C84F,C4AA,BDB1,C337,D4DE,CE1E,CA11,CBA3,CF2A,CC4C,CDBC,CADB,C3FB,C470,C5F3,C3EC,D1B4,C422,CC90,D06E,CAE8,D010,C22D,BB02,C009,C156,CA98,C0C2,BD66,C06D,C140,CBFE,D310,C887,BD2B,CB7A,BD6A,C731,BD18,BB25,D685,D1E3,D424,D6A7,C217,C7A5,C3FD,D736,DD8A,CC1F,BF2D,C844,BC33,BEF0,BB2F,C991,CFA9,CF7A,C2EA,BF8E,C408,BEB0,CBFC,C896,C0ED,C8A2,C821,C2FE,C5B4,B938,C272,B41F,CC0F,C33F,C6A2,C090,C6EF,BF25,CA04,B749,CE0D,C575,C51E,C176,C8EC,CE7C,C51C,C2B6,C82B,D10C,D0B8,C90F,B985,B5D1,BF78,BAC5,B654,C71D,CB91,CA33,C81C,C51E,C52C,C5B6,C1BD,BC82,C559,BAE5,BD63,C01D,BBEF,BC71,BCD3,B449,C1F7,C6C7,C33C,C262,BABA,BEE7,CC20,C936,CE7F,CE46,C98C,C8BE,C3AE,C814,CA0B,C261,CAA9,D09C,BE34,C727,B873,B8E0,BF94,B4AF,BA28,B964,BB5F,C0F6,B898,BC88,C212,BFB0,C37A,BCF3,C62F,C41D,C92E,C7DC,C774,D0DF,D2EF,C0E7,CA85,B692,BAE6,C8E4,C64D,C902,B634,B61D,BFA8,CA43,D42D,D24B,CC87,DA71,C188,C386,C8FB,C19C,C921,C3FC,B74D,BE5D,BCCB,B36C,C4D1,BAB9,BEA4,B6F1,B6D5,B5EE,C1F2,BE5B,BD8F,BEF6,BE30,C260,B429,C8F2,C2A2,C767,C119,C9DE,C2A5,C97E,BAF3,C208,B953,BA3A,C593,C7D2,BA6B,CC8F,C605,C25A,C88C,BB43,BF20,BB38,CB81,C258,BEC9,C5C4,C9B6,BE85,C75A,CB44,C588,B470,C79F,C14E,C53A,BD61,C944,C364,BAE8,BA05,BE26,C43F,CC57,C6D3,BDDC,C45A,BDFA,C5FD,C86B,CCC5,C87C,C92D,BE2F,B987,C1D1,C808,B36F,BB49,BBAB,C470,BA0C,C2FF,C367,C2AD,C1E1,B6F1,BA7D,B7FF,B8AE,CA5E,C9E6,B2CF,BE8C,B233,B8D7,C0D3,C984,B856,CFD9,AC78,BBE2,B2A8,C938,BC6E,C9AD,B9D2,C1CD,C32E,BCF9,C38E,BF43,B758,B7DE,B9AD,CB89,C44C,C1AC,BFB5,BB9A,BE0E,BC7A,B5DA,B9A7,B741,C2DC,C5C8,B564,B7E7,CA25,C430,BFC6,B6D4,B81E,BB84,C086,BC0A,C229,C17A,BAD1,C046,C056,C795,BA13,B731,BAC1,B608,C6E4,CA0B,BC05,BE76,C2A5,BDBD,B940,BCEA,BC3E,B96F,BD5E,C3CB,C99F,BD0E,AF67,C220,BCFE,BE7F,C386,B403,B6B3,BEFD,C679,CB71,BC35,BF3F,BFFA,CB53,BA51,BC3E,CA98,BC80,BE6C,C72A,C505,C784,B5D4,C1B9,BE99,BEA7,BC20,B893,B93B,C67B,C01B,C5FE,C155,C4A1,C8BF,C366,C7FB,CE7D,C15C,C4D3,C758,BD3F,C6DD,C5A1,BF40,B785,BCDB,BF6F,B53A,CE71,BD44,B9A0,C398,C655,C29C,C2C3,C18E,C2A7,BCF5,B873,B74B,BCBF,BA04,C2EF,AEA9,C305,B8F4,C29D,B561,C636,C795,BDBE,B08A,B62A,BF26,BF71,BCDB,C7A4,C05B,BBCE,C384,CA54,C5F0,C7A1,BEC0,C0B1,C538,C100,B8D4,C6BA,BC0A,C4D5,BD58,C487,C455,C0B9,C9D9,C99C,C4F1,BCDE,C3C9,BBA6,C22E,C057,BEA3,B360,C983,C254,CA91,BE1F,BF83,C7E4,B749,B4CD,C626,BC07,B32B,B468,B773,BFFE,BCBF,BF47,BA64,BEC4,C6A9,B5B3,C925,CDD3,C667,C128,C772,CCCC,C45E,C432,C512,C5C2,B3DD,C0A4,C42C,BCE2,BAE5,CE62,C436,C819,BA87,C0B1,CC72,C4D9,B3C0,C2BA,C1C1,C2CA,C215,BC8E,C247,C24E,C289,C729,C655,CB63,BDF7,CAF2,C3A1,BBB8,CB98,C5A7,CACC,C90E,BEAC,BFFB,B8D7,C038,C8A1,C5B3,C251,CBED,C31F,CFFF,C290,C8B1,C0C2,CAEB,C10D,C432,C0B3,C4A5,CA8E,CB2C,BF42,CF64,CD13,CC85,CBFE,C993,C91F,C259,C1E1,C7B4,BBCD,CEFF,CC2D,CCDB,CAF8,D0D5,CCFC,C798,BD5B,C7AC,CE82,C9A7,CB80,BCA4,C30A,C0C7,C914,C56F,BF16,C8F8,CEFA,C428,BD45,C3E8,C70F,CB03,C2B2,D23F,C411,CF68,CBF9,C52E,BF60,C579,C799,D5A6,C6A7,CA39,C35C,CCDD,CDB4,C816,C980,CB41,C4B3,C8F5,C623,CC2F,D021,C2CA,CF1D,CCBB,D2A1,CAC2,CCAE,CA3C,D9DB,D4F3,C79E,D804,CE88,D24D,D8F2,D7D1,CBFF,D5BB,D61D,D9F0,D292,D371,D29A,DC98,CA8C,E167,E2BE,D70A,D616,CE29,D2BD,D573,D11A,DCCC,D3C2,C88D,D99C,D6ED,C9BC,D8A2,DD90,DE4B,D3CE,D6D5,D654,DD31,D711,CABB,D96C,DDD7,D414,DBA6,D86A,D191,DC62,DBF4,E85B,DCAA,D243,D72D,D2C3,D76D,D72E,D5E7,E7F6,D62B,CBD4,D907,D46D,D859,DA01,D471,DAA4,CF04,EA5A,D385,D562,D752,E178,D162,D1DA,D725,CB58,D6AC,E444,E176,E2B8,E617,E889,E6F6,DD2E,E798,E5F3,DD70,E74B,EC96,E6F4,E427,E16D,E3A8,E045,D726,E77A,E20B,E1F6,E139,DDBB,F831,F6DC,E9CC,E979,E038,E25A,D560,DCCE,CBE8,D483,DF37,CF4B,CD0C,D237,CFE9,E077,D5BF,D124,D526,DC43,C9DB,D64D,D82A,D8BB,D79B,DA4C,D2E5,C6D0,D2E3,E2D9,D054,D7D6,D330,DCDF,D07F,D318,E0FE,DFA4,EC5A,E142,DFAD,D99C,D0C1,CC53,C9D2,CFF4,CD98,CA53,DB5B,C7B4,D410,D2D3,CF9C,C551,CF56,BA8C,CDF6,D40B,CF63,CC98,C17A,CDAC,D071,C741,CA59,D633,DD29,E273,E0FA,DFCC,E085,DA98,D260,E07A,E441,EB13,EAF8,DAD8,DAFC,E76B,E40D,DF3B,E21E,EA2E,F5A0,F466,F3F6,0D85,0AB4,F9BB,E9A7,11E3,217C,2E65,177F,181B,1FB4,1BF8,0C99,FCE9,FACC,F5F0,0BD4,217C,0E57,118F,0401,F578,EC2B,F92A,FACD,E527,E058,E7AC,DFEB,EE64,F682,0755,1664,0BE9,091E,04D8,0B90,111C,0A34,0FF5,1170,04D9,1474,13FD,178B,232A,1841,1576,0294,05BE,FA92,FEB6,F930,FA20,03EA,103B,FEE2,F6FE,EF54,E58A,EE6D,F158,F9E5,F881,FB96,FF5C,F91A,08C9,FE3E,FB51,EE0D,FF4A,F716,FDFA,F9AF,000D,F787,F5AB,EBEF,EBE7,F1F9,0211,0824,075A,016F,25A8,1E0F,2030,1E73,1D78,1E8B,2376,2B46,2819,27FE,1B67,264E,0B75,1628,1DB7,21D6,2540,3554,2AB8,2EEF,2D8C,25CE,204A,2321,1720,18DF,1F70,27AA,27BA,2495,28FD,2221,2281,227C,279B,169A,20E0,29DB,1840,1384,19F1,0AF8,2306,282F,2DF1,280A,2C7B,3108,2B45,2A0C,2D6B,2AC6,2DE6,199F,1F32,218B,2665,2F32,1626,2547,1977,2A29,2BA1,34D3,2E3F,2C70,2A55,3361,2645,2986,27B0,3A41,30E3,2CE1,257A,309D,30D3,2C47,310C,2A47,26D0,2F9D,2C70,27CA,24AA,2F28,3402,2865,2D94,37A0,3E27,2541,2E60,3948,2355,2A75,23AC,26B4,34B3,2677,2F77,2826,2472,25F4,2E7A,2AAD,1821,2B23,289C,22B6,2319,19F6,283B,1EEE,2176,36ED,38DC,36EF,1EEC,2965,2794,20AF,2A60,259E,2A1D,33BB,3DD4,377F,3BDE,326F,3497,39D0,3232,3ABF,305A,2C85,256F,2B62,2EE5,3627,34F9,34A1,3396,27EE,2A25,2871,2F94,287E,3836,3F06,334C,376B,29E1,2B1F,2ED6,2DF1,35EF,3094,3789,338B,3248,3BF7,3172,322C,21EA,365F,381B,3327,3EA1,38D9,3DD0,3F7A,3F0A,3632,3DFF,4102,3884,425E,25CD,3478,31EB,3EBB,3B72,356B,3C2C,2B5D,2F18,2E07,2BA8,3F59,3671,2A3A,2113,20CA,3ACF,3442,3CFB,367A,3926,4284,3921,31BA,2FEE,3E8D,4438,3041,3DE3,3199,44D6,2400,24E2,2B90,34CE,3812,3EE2,4365,39E8,38A7,3344,3560,352F,3371,2F77,3B35,340A,3089,34FF,3DA5,3F27,25E9,3AEF,33CA,31E9,3126,2C9A,3E25,3B0E,3C9B,53BD,4727,4C50,3516,3D5A,3D3C,3364,3FC8,305A,467F,272F,3E0F,39C8,431D,3CAB,3364,3F7C,3BFF,3702,3DC2,3CD5,33F9,3BF1,36ED,400F,39CA,3E12,38B4,3706,3A36,35B6,3A91,36F9,3A2F,3F2E,346F,34FD,3ADE,3471,338E,41D2,3CAB,4355,3BD2,464A,4810,3D58,363C,477D,4105,41B2,3616,2DE6,3DD4,289B,406C,3447,3463,33C2,263F,2889,244D,368F,37CE,3C31,421C,3A39,4C5F,401D,3FD9,41D5,3A6A,3BC4,358C,264D,27E2,39BB,33DB,4248,39D2,3FFE,3792,3C78,4C37,3729,4B32,3FE3,38FD,3539,4A65,3CF0,3C42,4090,3EF1,376A,3C4F,435C,3CD7,4734,3D48,3B8C,3BA5,31F7,3C1A,3CC4,382A,3AF3,4361,46C1,3ED4,3780,3A3F,323F,2E0A,3CB7,3752,3AD1,3B65,42DB,3EF1,37F6,40C0,409A,2CAC,3941,35D7,393A,3283,4FBD,40A0,4724,3B0E,428C,30C4,3E99,2F07,3C06,33F4,4669,48C1,4A8B,3FDF,396B,3CCB,3C4A,3A2B,3EDB,3ABB,30EF,4335,34AC,3F83,405E,3AC2,4169,3A0D,3C86,42CE,45E9,4A5A,3B08,3E05,401B,3D65,49DF,3A08,3B00,4C04,3EC5,40BF,4D04,47BE,4438,42E5,42E7,3FD3,3987,3FBD,3914,3303,38C9,392A,347E,3FD1,38A7,4289,3BBB,41FD,4110,3F82,4E0F,3523,3A3B,37A8,380F,48C1,3F7E,398E,3B57,3EB4,391A,3895,37E3,349E,4766,3A51,3FAE,437B,3D83,42A8,3C6A,39A7,4078,3E89,3C58,5017,46B0,405D,3FC0,3EC8,4533,4819,4640,4592,3A48,2E47,3A5F,3D5F,391E,438F,3BDB,355F,3D66,44B0,4597,496D,4BE9,4046,3879,4269,4392,5069,3BEE,3707,3E72,33B8,3394,3D57,39ED,42BB,3D43,3860,446D,3ACC,442C,4854,39C3,4332,4085,3689,3C17,42BC,40D3,4556,3F57,4387,45C6,4A37,3DEA,3D5C,4B41,3F9B,3C73,3DFD,4360,4415,43F3,3BEE,403E,3D72,4768,5053,44D5,3D12,365B,3CCE,4450,3102,3FE7,42D0,3548,3E2C,3B24,3615,3EF9,3612,430C,3F83,43D2,3CE4,3DC0,45FF,4202,41EF,4140,3B17,4447,3EAF,4EFC,3B9F,4103,3E5D,3482,3D61,3748,464F,4266,3982,368C,329D,498C,3D38,4143,3E28,3BED,37F0,4400,3797,4296,3951,4901,3C31,3CAA,4250,4206,37E3,414A,3291,406B,3EEA,3FA0,3CEF,3B3E,3209,37AA,3A64,4330,404A,3ABF,3544,3C8F,3D96,4677,3DDF,3A32,3F39,3E50,3890,3E5A,39A7,36CF,3CE0,33A0,4D79,3F28,2E64,28EC,33C7,299A,2851,3BA6,3795,3D96,4208,39B3,3831,42F9,32E7,35E6,3B38,377E,3FFA,3A59,343F,3C08,3BA6,32CA,382C,364B,38BD,3E2A,4216,3C20,3D5E,4355,3B3F,358A,3198,342A,35D4,35E7,3C8D,2874,4030,4865,2B34,3785,2E99,3E5A,3FBA,3E67,3197,3541,3053,336D,306B,3A54,2C0F,3521,3134,3737,36DA,33C6,3203,3C92,283C,3088,2EB0,3151,3627,2B48,2663,2CC0,3809,3EED,3307,2750,3A06,26CD,3908,33C2,3191,37D1,35E4,2CB3,3788,28F6,25BD,314C,35EE,274B,3446,3309,3FCC,37A1,2E29,3223,2D22,3439,3180,26E6,362F,3760,2D81,2C16,3477,34C9,2BB4,2C69,34B6,34B8,36F6,299C,2F34,327B,32DF,2E7E,2D19,2773,2FC9,392E,2E83,3341,24F5,2A98,32AC,36DB,2AD6,32DC,257A,2738,2D64,2A3A,23D4,2F52,34C9,1FC6,35B4,1C22,2142,1F55,2483,3319,286F,1F58,2FB7,16DE,256D,1F5B,2BF6,2307,2415,1E3B,1D4F,1B78,208B,207C,2EE8,2BD4,1E80,2958,2D30,2C9C,2185,1DA2,1ACD,2137,14C3,26E0,1D58,176F,32BC,1E46,1A56,2B02,2F4B,21C5,28B3,280D,37E8,2847,266D,2DBA,2195,2B14,23DB,247F,184C,25B9,1A9B,25CC,24F0,2B30,21FA,21DF,2610,252F,23A8,243B,3366,2D61,2603,2576,22CF,184E,2016,2194,1A5F,2675,2548,1D02,0C41,155C,12D7,08E3,1ED6,1C0B,1A90,1A55,1578,14B2,14A0,1B9B,1885,17CC,2C1D,1ECE,195B,1839,1615,1B69,1D6B,0FCB,11F2,0FC5,0CD2,1713,1D3C,1FE9,22AD,1AC2,247A,2B81,2686,20FB,226D,255D,24EA,1594,1FB6,1883,1EAA,2EB4,1985,1E97,0F9C,26F6,2DC7,2387,280F,2FE2,2112,14A0,2071,283F,2F9C,29E5,27F1,2730,14A8,0C61,2109,0DA7,2731,21B4,2AEC,38DB,1C5C,279D,27F2,2B92,303B,2372,22A4,1AF5,1747,1DB4,2E96,262A,3469,330C,281E,28B8,24F2,19C4,2798,299D,1955,22CE,13FE,1AF4,15B0,1EDE,1DBF,1F7B,1F4E,1AC4,0C89,179B,11DA,2016,2078,1D92,23A4,1A21,1922,122F,141F,F766,F7A0,F4A8,F4DC,FD10,F62B,EBAA,E368,ECF9,DFC3,E232,E24C,F782,0988,F3E5,FED2,FB08,EE4C,E472,F5FE,FD88,14AB,04A0,09B2,06C7,0BFA,180D,2063,215A,1490,0E5E,FEBA,F664,FC54,F76D,FE5D,F03F,F221,EF0A,EF6F,F675,F61A,F12A,F27A,F1BB,E9B1,F619,FC35,FB04,FB2F,06CD,036E,104A,00C2,FC68,F025,F4CF,02A4,0F3D,11D6,0DB9,0ACF,0D71,0651,0C68,084E,FE52,F502,0675,0954,0D54,0A51,FCFB,F69E,0771,0A3C,09AE,0D2C,15C7,0CFA,09C6,FBF5,F6F9,F14A,016F,2FE6,3281,1B29,1288,29E5,1FA7,2613,26E2,2439,2DA9,2A65,22BA,1004,14E1,2267,24E8,289E,2E80,2C17,351B,2DCB,2279,28F6,2557,1B01,1EC6,27A1,347A,280B,3229,2A78,2C34,2883,26C5,25B3,2595,2AE5,29A7,2797,19D2,1D81,19D3,2057,329F,2C4D,2F23,30CE,3232,32A1,3641,1D13,2A57,246C,299D,2777,2E06,1E36,262F,25D2,273A,2C4C,317E,2DB1,2C90,38EE,2F63,32B3,2451,26A2,2ECC,3700,3D25,3671,3445,316B,3CA6,37F7,373E,321F,3594,36F3,2FE0,340A,2EC2,2ED7,293D,2E27,2D6F,41DB,37AF,4035,3E3A,3547,333A,3998,2E01,3A0C,321E,4283,2931,3091,38B8,35A7,21E8,2D33,3392,293C,3063,2EA6,3354,2520,2D4A,2892,1B2A,27D7,32F5,31BC,365B,3377,2BED,28EA,2E4F,2267,3A8F,3444,33A5,3E3D,422A,3B46,398F,330C,2A8D,3EC3,3D18,3557,3A60,2D81,3CD6,41B5,2DA4,2E23,38D2,3198,3342,3543,3999,2A20,386A,4132,474E,2EB4,2BD4,3E80,2FE5,3D72,3A0A,32B3,3E3C,3B44,36F0,48C2,33EF,3797,387C,2E25,31EB,36EE,3532,4BE6,3C84,39F5,415B,33B1,39D6,42DD,336D,2D0D,327C,3361,3724,491A,3AFD,38EB,3B3C,3EAA,2857,3227,27CD,2DD4,31E2,2F17,3C72,2800,2E9D,346E,3B9B,3900,42B7,3679,4058,32FA,3747,2E8B,31BE,3576,399F,416F,3091,3AD4,3C31,3CB0,3C81,3B32,49E9,346D,3D3B,4171,3C50,4A3A,3CBF,2FA8,494D,3E05,3391,3EA4,3C02,34B8,3F82,3C6E,3759,3EC0,394A,3AC3,3A62,3837,3C4E,3B6A,34A1,385A,43B9,424A,4472,394E,4004,4968,3AC3,32CC,39CE,3AF6,3720,40C3,3BEE,4009,47FA,3909,3D8D,2A1B,4091,31AA,3758,2E6E,3EFF,41B5,419A,4384,428A,32B2,2CA4,358A,41EE,36FC,4544,38C6,3592,3AF4,3ABE,2D3E,377B,41A3,4049,4183,42D4,382E,3F5E,5645,3639,41F2,4D49,3EE2,308E,384B,3769,3BCD,35B1,36B6,3BC2,3952,3D02,2EC0,294D,2B56,394C,320E,3723,385C,3EC8,46BB,3E89,45A0,3489,3D91,31D0,2F3B,292A,3863,3E53,36E1,38BF,414C,3DB5,4045,39F3,3E4C,47AF,4292,4A0B,467C,3BE2,3F1E,38C7,3734,488B,3966,488D,41A6,3519,43BB,4B3C,4099,3BB5,397D,42EC,3A29,41DE,411E,400E,3EB9,4408,4FEC,418D,4167,3C9B,3A0A,419B,3DD5,3C22,447D,4247,4162,46EF,3CCD,45F7,3181,3C55,3297,4075,343D,4239,4957,3C09,3E19,45A7,3F3C,3B7A,3829,451C,4CA7,4CF2,417C,36C4,3557,3FC9,3AFE,3569,40AB,408D,42C0,4A2B,3691,36B3,3763,4A37,45C9,3FA4,3ADC,3EA0,435C,4960,456A,3AC6,44F3,389E,3F4B,40AD,44CC,3498,34A1,4699,4327,4D6C,4B6B,44C2,3D60,41B5,40F5,3D99,3C0F,3720,3856,37B9,323A,368B,3FFF,41C4,3E1A,3AC1,37BD,3959,430D,48FF,47D5,3CF5,4A63,515F,3D0B,3B7F,385D,470D,47A0,3C31,353F,3C31,35A3,4266,3BBA,3800,3646,3CB5,4329,4594,372A,4D3C,4443,3853,460E,4B4C,4086,4773,42D1,42A4,501A,47D3,460A,441F,4ACE,3B6A,49F5,488B,38CA,3F28,3FBA,35BF,396F,3885,4279,4AE8,4310,406E,484A,4401,3CD0,4685,45B4,3FE9,335A,3EB1,347E,46E8,3FE3,37F9,3E4E,4235,4A3E,419A,3D89,2E23,4610,3840,48A6,4378,4B00,3CB4,3FEE,4673,33A1,36AB,4F39,49FC,47FB,3EDD,40BE,424D,4852,40FE,43F8,428A,3E0E,3F23,3F33,3F56,4696,4792,49CC,4286,4919,3D95,4440,4518,4AF0,3DA4,4115,3932,4264,475D,4DD4,390E,3B31,48CE,4631,47EE,41ED,4694,3581,48D8,395D,3A9C,3FB6,432A,3D22,401A,4152,46C1,387F,341D,3AA3,3E28,429D,4D1E,425E,41B4,301C,409D,405C,3745,3BCC,447A,3AFD,40FB,4738,47B6,47D3,36F2,471B,4749,3A04,440C,3BE0,341E,416B,3B70,4107,46C6,37B5,401B,3BEB,4229,451B,4A23,3C54,49AF,46D1,415F,44D9,4151,428F,3D6D,30B9,3FDC,48B1,27CB,3B68,3415,356F,3437,3ED0,4010,41F0,3991,3B27,44EA,3017,4244,452C,41DD,45E4,3E39,3D9D,3F68,3E78,45B1,3594,4718,29DA,358C,3F06,42DF,409E,4A32,430B,486B,3C04,3172,3E8B,327A,3E20,3AA3,41B4,3EE8,3CD3,4011,3FC2,2D0C,381D,3B4D,3970,368D,3CD7,39E3,42CD,3C99,382F,3C93,3946,3128,3D02,376A,3CC2,43FC,3474,3A8C,36FE,33BC,35F8,369A,30A9,312A,3152,41BB,3406,3CC5,4520,3B92,3353,335B,2C08,401C,3B01,356F,37E7,3608,3C36,330B,398F,3816,3D4E,2C92,3863,390B,3C06,3E68,3279,3AF3,396C,2F26,4456,491E,4283,3382,314F,32D8,37F7,2E65,3608,2AC5,2EB1,3265,3970,25E3,3C4A,3088,3A6F,3EA5,3602,3877,2F37,34D9,2C45,389C,39B1,4312,3035,3110,2FC2,319D,37A7,35B5,3B9E,3F9F,35AA,3C39,30A9,2140,3716,3133,2B39,2C33,2895,2280,2667,2666,2ADB,23A1,283E,334E,2841,2C88,2877,2C48,235C,214D,1B3B,2384,1EC6,2F32,2FF7,2C8B,3437,2CFC,2CB5,355A,2ECB,2971,2BA7,2608,2551,2B39,2E4B,26F7,1E47,2FC4,2CAE,309C,2836,263F,1FFE,2D7A,1FF7,3175,2EC1,24E2,2B0B,2C8D,26CD,2863,2552,2696,1AD6,23FC,1FB7,2F84,2BEC,26C6,2905,30FD,311A,35AD,2D59,2BF2,23D0,28F4,22ED,2B5B,2914,280E,35C3,314C,3132,1952,20D7,15B6,2414,201B,1F19,1D2A,269D,1B53,10C5,1E7C,1B46,180D,143D,2319,2177,2A4E,2040,20D6,112D,0DCA,0DF1,1EC2,10CE,10D3,14AF,1890,15D7,215A,1E50,2C32,219D,32A7,2582,285D,2D38,3189,2B63,2563,212F,2F9E,22C0,20EF,3018,2592,28D4,2B92,28FB,2DF2,3A88,2D19,46DE,2D30,28E1,281D,2C00,2EEF,1F9C,2D8F,1F07,1D3D,18D0,1B1F,2204,2739,2F2D,3C55,2E25,2B05,2F3F,33F9,3AB7,2F82,30A7,2B52,2ACB,317D,3029,2C32,3B9A,274B,31A4,3278,2B41,26E2,257A,2AF8,337E,31FE,12E7,1131,1E5E,304C,2D82,28B5,2BBE,1E8B,2050,18E6,2009,1BA7,3241,2582,2057,2987,1ECA,210C,13D2,0B00,F646,F7C3,F465,0528,069D,FB6D,E656,E4EB,D83C,DE48,DCB0,D452,EEF9,005D,F930,0116,F810,EF06,E773,F43F,FB3E,135D,164E,0D07,0F4C,1A76,24F1,231B,2783,21A0,1073,FF46,F2A5,EEA2,FACB,07C0,F39E,F37E,F658,F11F,ED6D,EDC9,E76C,E0F3,E3D6,E585,DE96,F351,EF3B,03B8,029B,023C,04AD,FD8E,F480,F446,FECB,0AA8,0EDA,2079,19CE,0C54,0CA2,014F,0817,0E57,0360,F0D2,03BB,052A,0B38,0875,FA81,F91F,050E,0A09,07B6,0DE5,1CBB,16C9,0C5B,FE9E,F5D6,F7CF,016F,D352,D699,E290,D4F9,E508,E056,DBA1,D5B2,D50D,D487,D9AB,DECD,F035,E856,DA1B,D820,D101,CD80,D2DE,C673,D007,D184,DF04,D822,D244,D8C8,E2EB,D84C,D85E,C9F7,CA48,CD8C,D217,D361,DA19,DFF4,E4FB,D3BF,DF7D,E5AF,F44F,EA95,DA4C,DC4D,CC41,C383,CB5E,CEC3,C0E6,CF47,DADA,D03D,D21C,C62C,D251,D301,DFB1,D8AC,D534,E23A,CF17,CD24,CE1B,CEBB,D6C1,C41E,BFB2,D331,DD3B,CF2A,C910,CB7A,C3EB,D3EA,D8D9,CC5F,DC79,D16E,DA6B,C8DE,C6B5,D04B,DC4B,D004,CD96,C9CA,CE9C,C031,BB49,CAA5,C374,C888,E174,CB64,C6EB,C66F,CE67,D2A6,D39B,CFDD,CC4A,CE0D,D6A9,D599,D412,D5A2,DD7E,C7BB,D9CD,D1D8,CFCE,E74F,E03D,E54C,E16A,D22A,C632,C219,C85A,CEC3,D5C2,CF3E,CFC8,D63A,D0C7,C84A,C535,C411,CC62,C69F,B5AB,D4C6,CD19,CB41,C7D3,C92B,C70A,BF9E,C4A9,C95E,CA38,C932,D31C,C3D1,D4BC,CA69,C5DC,BA7B,D246,CE1F,BFCE,C976,C605,CB3E,BE02,D105,C49C,D59F,C6E3,CD3E,CE44,BE8E,CA3A,C4B9,C5F6,CF7D,BF3F,C941,C82C,C4B6,C92B,C3DE,C4B6,C574,B7B9,CF71,CCAC,CA86,D37B,C526,C993,BE7A,C917,CAEA,C1D4,DC84,C980,DDC0,CB51,C2B3,DB24,DB8C,D813,DD81,D391,C9D1,CCA4,C7AC,BF00,C111,CEF8,D095,CDCE,CBE8,C34A,C1DF,C9C8,C8EF,C898,C288,C0CA,CBC6,C813,C649,BD3F,C82D,C086,C0DA,C136,CFD5,CB6F,CB9B,C58F,C147,BF1F,C9CC,D832,BCF9,C0B8,C317,C82D,C293,D013,C3BF,CBED,D188,BCFD,C4CD,C250,C82E,CB05,BABF,B7AD,C868,C56B,CEDD,C93A,C874,CBFB,CB60,C5B3,BFDF,BEB0,BDC2,C8E1,C0C7,C3CA,BD26,C196,CAE1,CF2C,CD14,C5BB,C320,C17D,C539,CE88,C8F2,D507,C6A0,D0ED,BBB6,BC29,C8B1,D10C,D2A3,D08A,D0F5,C0E0,BF38,C3A0,C149,BEE7,B9CA,B61F,C477,C9F8,C147,BD7A,C13C,C707,C61A,C7D5,C77E,C262,D0BC,D238,D6BD,D35D,D8D9,D523,BE33,C5B6,BEDC,BACD,CD28,C09D,BDB3,B7C9,CDD1,C210,C715,D640,CF7C,CDB0,CC3D,C627,C40C,CAF3,C04D,C300,C9A2,C6DF,C1C6,BFCB,BF6E,C631,B602,BEA7,B613,C18A,B6F4,BE02,BEA9,C260,C221,BFA7,CA27,C24E,C8E2,BCD8,C28B,C25E,C674,CAE5,BCDE,C260,C68A,BABB,BC4F,C169,C998,CA18,C870,C5DF,C2B6,CA7D,C926,C0C0,BF95,C10D,C55F,C007,C8AC,CA3E,BE3F,CA75,C6C6,BF07,BAC1,C1F0,C157,BCA7,D401,BC6A,B9B7,B6D1,BDAD,BE94,BAEC,C46F,C1BE,C892,C1DE,C418,BF96,B9F7,C756,C2C3,BF2A,C713,C5AD,BB7E,C775,BF83,CA35,C8AC,C3A1,BD4B,C502,B7FD,C4F0,BC68,C0DB,B968,BB7B,BF46,C1AA,B755,BF69,CA5E,BACA,BE0D,BB23,D07B,C058,B845,C86A,BD47,C72E,C76C,C7AD,C29F,C27D,CBAA,C338,B81A,BA84,BE85,BEF8,C8BE,CB85,BB29,C7BE,C46A,B974,BA6A,C35C,C31B,BC86,B7C9,BA8E,BDD3,B37E,BCFE,C589,B81A,C74A,BD42,BF93,C62B,B262,BC98,AEC0,BA16,C4E0,B9E3,C284,BBD6,BD30,C5EE,BE99,B5D8,CB2D,C55F,C246,BBE5,BFD3,CED1,C36C,D14D,C5D0,C56B,B6FD,C9E8,BC84,BE4F,C42A,BD41,C2DA,B94B,BDA3,BB24,C4AE,B553,C8D6,C6D3,C3F8,C242,C714,C3FB,BD86,BBB5,BCF9,C45C,C40D,BA9D,C18A,B777,C4FF,BE9C,B9B1,BB5C,BF0A,B253,B939,BA59,C0A5,C221,C00A,C481,C7D4,C25B,CC50,C22A,B6AE,C02B,BF73,B70F,C6F9,B24D,C1A3,C37D,B8EB,C18B,BE6E,B270,C33E,BBF2,C1FC,BDEA,BADD,BDB7,BF98,BE46,BC0D,BD31,C265,BB1F,BE48,C364,C352,BA8A,CF3C,BBDF,BE32,CDC2,C18E,C61E,C5D5,BBD3,BFB8,B8EF,BB05,CABE,BB20,C1DE,B55E,BB14,C9E9,BFA7,C7AF,BB66,C2AA,CC2D,B7C7,BEA8,B869,BBB8,C5C2,BA1A,C41D,C406,BB7B,C915,C696,B267,B6F5,BAA5,BF8F,B965,C426,BE87,C7EF,CE92,B38A,D18A,B8EF,C74D,BC0A,BFA8,C6BB,BEE1,BCB6,CBBE,C2F6,C1BA,D105,BAEC,C400,BE12,C3CF,C5DE,C524,CC1C,C904,CEF0,CF42,C27F,B86E,B73E,C49A,C188,C1B7,C1CA,BF26,BDEC,C75A,BE16,C291,C9FF,CD10,CD9A,C164,C1A6,C244,BC7A,B2D0,B87A,C67F,C70D,BC40,C11E,BA3B,C277,C3B5,C964,C177,D2E3,BD8B,BDF7,BDD3,CE17,BFD1,C380,C823,C095,B7FE,BF70,C5F7,C380,BECF,C9E6,C68F,C1AF,C129,C8ED,C279,CC0F,C01D,C98E,D107,CAAC,CD40,CD6B,C977,C031,D165,D330,C6EE,CA25,BFAA,C638,C9FC,C37E,CA0D,CAA2,C37D,C157,C2EE,C372,C9C2,BCB1,C5AE,C7A2,D0C4,C9C4,CB44,CDEA,CBCB,C9B6,CD35,C665,C84C,C523,C472,C2C6,C9DE,BBAE,C620,D100,C3FF,C13C,CB43,D6CB,C9BC,CE39,C81C,C6C5,D15C,C8A0,C556,CBAA,CED0,CD9A,CC96,C995,C817,C688,C226,C7F5,D3D2,CAD5,C97C,D052,C518,CEAD,C5DA,C726,C16A,CCC2,D4EF,D1C0,CC49,CAE1,D941,D00A,DB13,DA46,C926,D381,E2CE,D178,CBD1,CA30,D050,E4B6,D499,D9FB,DEBE,DCA4,E441,D428,CB7C,D5AE,CE6E,CF07,CBC1,D0E6,CD76,D278,D451,D466,CE33,D958,D266,DB65,D78D,DB50,CF5A,CC45,D153,D23D,D1BC,CCF2,D269,D4F2,D0A6,D83E,CF7B,D2F8,C53F,CD79,CDF5,D56E,CC28,DAC7,E166,D76C,DCB1,CC3C,CF62,D5DA,D673,D7BC,D341,D5E8,D27F,D6F3,D923,E003,E219,D56B,D77F,D387,DB2E,D6D4,DAEE,E607,DE2B,E88D,E659,E352,DA00,DF8F,F2B8,EF17,D70F,E663,E746,E5C7,D388,DBB8,D818,E359,E84D,EEB9,F41B,EBC2,F1D3,E502,F49D,E5C5,E17D,DCF2,D4CB,D350,DB10,D8AD,D1EE,CECF,D397,D5DF,D167,D729,D45A,DE9F,E29B,E829,E316,D392,D373,DBBD,E26E,CF7C,CD2A,D6A4,D2D6,D73A,D817,D4D6,D2E0,D150,D60C,DB71,D518,D544,EEAE,EDA7,E036,DE64,D0DB,D1B2,CCE7,C369,CE69,D912,C512,CF0D,C4C6,CF2E,D89F,DFCA,D79A,CA60,CEDE,C55E,CC47,DC9C,C608,CA2D,CF27,CBE7,D813,D63C,DC47,D70D,DF05,E671,E058,E123,DE02,D02C,DE6A,DABD,E632,DEA2,E522,CBA7,E305,E452,D887,E03F,EC06,E9CF,E893,FC80,0AE7,0AA3,094D,FEEA,0A55,15DB,1D30,1A52,1F62,2C33,1938,0E53,F6B1,F3F7,02CA,0BAD,1386,1E69,00AC,0732,F2AB,EC1F,00E3,F56D,F900,E60C,DA79,D1D0,E66D,F6E2,09B8,0D03,04C7,064E,031B,0AFA,1AFC,0C10,0F63,09B2,0836,1850,0BE2,2013,214E,09AB,1A79,08C6,0C97,FD48,07AC,EFC6,0688,1034,0831,FC64,F49D,ECD5,E4A8,E0D6,E7CA,FD60,0586,F439,EDA4,FF2C,04D4,FE6E,FF04,F94A,F3A4,04AB,013F,031E,FB16,F4F4,E831,ECE5,E459,F581,F8CF,FD32,0382,016F,248D,174F,25F7,178A,1C74,2D1B,269A,2012,2534,2191,30E9,2AE9,1EFB,1752,2546,2EF1,3493,25A3,2B16,338D,2539,2F35,2868,247C,259E,2A48,295E,1E72,24A6,2BFF,2FBE,2A6F,26B3,2509,148E,1F53,2847,279D,32B5,2218,144F,14E9,2E76,3856,27F1,3259,3257,25CB,27EE,3149,28C1,2542,23E6,2C67,22F6,2CED,27C1,39F4,1D5F,2A26,2D53,34AC,2F7A,238B,3741,26DB,3332,33D3,21C0,2892,342D,2DE6,3065,3A33,369E,3358,3730,2C4B,2BAB,2AD1,2F45,3F57,1A66,321A,3D8F,21FD,36BE,32F6,33BB,3F4D,2F82,3834,3205,32E1,3450,2D18,392B,3692,370A,327F,3072,2C3F,27E5,291C,22EB,2DC6,277A,37C9,2908,25F3,2881,2562,28A0,24FE,3496,3402,3FFC,368A,3A10,2B1E,2EF7,25CA,3045,2BD8,2F21,3529,4274,3874,2F05,3878,3CCF,33B9,3A15,3066,368C,2D06,2FD5,362C,39E9,2E12,3581,373E,2923,3889,3987,3091,3E05,2CEF,3F22,3FE5,3591,42CE,3143,3B27,2DDE,2F06,30B8,37F4,2B96,3830,3E91,4717,38D8,3258,2E6C,3D76,45D4,345A,3915,411D,3047,485C,3930,37E2,2F4E,3A08,2D20,2C0B,3619,302C,402C,367A,3B13,3701,3D51,33D0,3155,2376,2DFF,3A1D,36F9,3758,2D2C,2884,3B1B,3E07,30A6,3825,3D77,3E9F,3745,3995,2F3B,336F,35D7,35DF,3DAB,36A5,31D8,3B67,41E1,3578,3188,4030,3633,4571,393F,351C,27F4,41EB,3FE8,43CE,3707,3CD4,3CC8,4149,3B54,4A64,3F3D,3CE3,3CCD,333B,319F,4103,31F8,3605,4468,3DDB,30B9,4434,42E6,42C0,3F45,3C58,3E20,3F2C,3FB2,30F9,4AF4,4B8F,2F23,4014,3EFE,3B90,42C8,383A,4568,3611,2D3C,3474,39A7,38FE,4083,3C9C,30CE,3F33,46E1,28C9,4049,411A,3F78,44A4,2E0D,4511,3018,2E4E,30A4,33F0,49B6,3D0F,4FF1,31EC,514D,4868,4640,4007,3A0C,457C,3EEB,37AA,3BA2,387F,3D3A,427B,365C,3DED,2CA6,31FE,2C66,2E06,312E,3AA8,3E36,3B99,3AEB,34B2,3F7A,428C,4332,3C01,3C8D,2F38,21D8,31DC,2AE5,34A8,4752,3F58,398E,3980,3CFD,3700,3BD6,484F,492B,3C2B,3F36,39E8,4053,4801,4155,3D6A,3517,4408,3F4B,334D,39A0,3AFB,41C1,41EC,374E,38A6,37F8,37BC,434F,3CA5,3F1F,3E90,3841,4131,47B6,39BF,3D5E,41E9,3696,40E8,3C83,4446,3942,432B,45E5,4063,3C0F,391C,370A,3E93,44D0,49CC,4234,4170,3A2D,42D9,3AEB,36CD,34FC,3AA7,4280,3E95,4890,439D,3D71,4143,36B7,3856,4B13,3C9A,4F5F,3664,3B7A,458E,3F17,43CC,3D48,4269,40E3,3B61,3B3E,4549,42A7,3077,3FBD,39EC,4E0D,3CBB,3E55,4368,3746,3C3D,41D2,46CD,3EFE,4207,3C66,4168,4042,45A6,3607,3294,2E5D,36FE,3810,3C43,3CB3,432E,3862,494A,4266,4C4E,3C69,4417,3E99,50E3,4586,3E1C,4434,403B,37F8,3A22,3E04,3B47,4071,3D23,35A1,4CF3,3C06,3EF1,464E,3C49,4310,38AA,38A4,399D,4F4C,40C2,3C39,40AE,468B,39B1,4217,4BA9,396B,41CF,47CA,34A0,43B1,31A5,3D37,42C9,3C00,4FEC,3D8C,3ADA,45B8,482A,3D33,4093,3812,4496,3F68,40BF,4876,4C4E,3EC2,4324,3838,38B6,404D,412D,4020,40F3,445B,3C41,44D5,3CA7,40B6,3B16,3A0D,4496,3333,4321,4D0C,3DF0,423C,3307,339A,37AA,44C7,41DC,4C7D,4055,3FEE,4B91,4F26,416C,45CC,3878,397E,46F4,40B4,445F,459C,35A0,48E2,39C5,313E,42D1,4766,3884,40B5,4181,4864,41A0,3BC1,4873,3619,3E0E,32DF,3F8E,49D9,49B3,3C16,36AB,42E9,387A,3B86,3BD9,4051,5031,36EE,3B95,34E0,3592,34A2,3F69,4891,4051,3B7B,3814,4080,378D,3ADB,3902,361B,3532,4366,3F3D,3F0C,4165,3807,4034,50DD,31C5,45EF,3F79,3825,3A26,3779,4472,3BFF,3EAD,3AE6,3944,4338,3EFA,36D7,3423,48FE,3B4C,3E19,348A,4439,4F79,4011,446F,4C70,43AF,3F5E,3F1B,3CC6,3CE0,3CCD,3B12,430E,32D7,3732,36D4,2FF5,3A5B,3FA3,2C7F,3FA5,3797,3BE4,37C4,439D,3836,4339,3EF8,3277,364C,365B,36E5,3BB8,3C03,43F3,38C5,426E,3E80,4318,3A78,4352,29F8,3910,3D3E,3F83,3D4A,3D26,4243,3FA5,362E,4C04,3C10,3230,371D,2FBB,3DE7,3F4C,368E,31B6,3C78,2F01,416E,3583,3087,3409,3995,3061,418E,3EB4,39F0,3EA4,3804,304A,33B1,38B3,2FCD,3737,3AD5,36FF,2FC1,3AA6,35C5,3194,30AC,366D,3E6C,3178,2E14,4233,2EB3,33B4,3618,3D65,2D66,3E64,2E03,353F,39F9,3C6C,4239,356E,3764,3E91,4685,32C5,2C36,3E34,3426,4062,403E,326C,3AC4,393C,3A17,346C,2ECD,2B0D,3AD2,2F75,3DE7,3D68,361D,375B,3022,36C2,385B,372F,2F11,3226,2BAF,3630,3699,3004,2F72,3DC0,32B1,39FA,4BD0,39B8,34D6,33B0,29A4,331D,2F3A,2652,2E2A,27D5,2E86,2ADE,284A,2D79,2116,2D13,355E,2701,2CF6,213B,2515,2D81,137A,2C27,24CD,24A3,2EF3,2A74,30D2,2948,3A54,3129,39CA,2AFD,2A77,2E61,2951,28FD,3871,2B97,2834,2A0B,2EF6,2538,3664,24FA,2932,237B,29FD,3367,29C5,32BA,1F21,24CB,2937,2EB5,317A,1BFD,3092,26E2,2318,297F,207F,2CCF,27C2,2D08,2CB5,339F,2B32,314C,32FD,320E,2D9B,2F5E,31F2,2D48,2764,21BA,2C63,24DC,1C06,277B,1D76,19F9,1AB5,24C4,12B1,2A97,1C40,188E,15FE,2246,0D0B,164B,1991,15AD,2346,2A27,18DD,11F4,09CB,1B68,14E6,045B,127C,1D77,1292,24CC,2151,259B,25E4,2258,2C41,29F6,1E5A,28F8,23C6,2D60,2883,2B3D,1D5A,250E,28D1,291A,2196,2472,298C,2DBE,2602,25E8,2E03,3133,316B,2BDF,2F68,3033,2870,349A,2D71,2312,1CE6,198C,1D87,1D70,204E,31B2,228A,3619,298A,44DD,3DBD,37B2,2F3D,31AA,25E7,2943,27CD,3A9F,385F,30BC,3BA0,3515,2297,3BB6,348D,286C,20E5,2D0F,2494,263D,0ED3,1768,31E6,25FF,31DF,2CB0,25F3,1C27,1203,1E11,293A,2D3B,3483,2200,252F,13C3,19F0,0FBD,0715,02C5,F061,F9A1,0BCD,005C,F19C,E61B,D54C,D857,DED8,D71E,DDDB,F1BB,0534,0BB9,0063,F81C,E8C2,EF32,F194,0059,1787,0AA1,0C24,FDB6,14EA,1C67,1C9C,27E2,1D95,0986,F97A,F7F3,ECA9,FBC6,F546,F481,F0BA,E75B,EEA5,F224,E229,EC30,ED7D,DE95,E257,E89A,E96F,F97D,FDDC,FAAC,0E27,09FA,F9DB,EE81,014F,FEDB,0936,1A1C,1F9F,1A43,06A8,0034,0D95,0227,0057,FFD4,EEE0,FB91,062B,0849,1235,FA14,FD5D,078D,10E1,0462,1CF5,1C31,18B3,1770,070B,053D,F6BE,016F,CBAE,D462,E181,D6DF,D660,DC0A,D5AA,DD03,D5D5,D691,D1D3,EE55,E9D4,D7AA,DE63,D321,D3E9,D21E,D4A0,D4CB,C9B2,CE45,D6A6,DDC2,E6A0,D907,D3F4,D4A4,D6B9,C9A3,D0C2,DB98,D1BD,D57F,D852,DEAD,E107,D6AE,D6C6,E3B9,E06B,E1A6,DAF7,DA5D,D32D,CA28,CDAF,CCAD,D77D,D84C,CDED,CA4D,D1A7,D7AF,E12E,CF58,DD09,D6E5,E41B,D29E,D330,D34C,CDDF,CD45,CC14,D33C,CFB3,C98E,DE81,DBBE,CA58,BF31,CABA,C6C4,D333,C6B2,CD26,D469,D0FB,C987,D4B2,CD77,C72B,D189,DEEB,C2EE,C9A0,CE8F,C8A7,CB1C,D182,C185,CC62,D45D,CEC5,CBD0,CD46,D469,C436,C8C6,D007,D698,D1DE,CFD1,D693,D7C6,DABC,DB3C,CCD9,C276,CFCE,D6FF,D27E,E038,CF5E,BEE7,C66C,C92B,D79F,D7C3,D6B5,D5DE,D38A,D658,CF6E,C547,C0C9,C5EB,C7BB,C463,D1E3,C78D,C3B0,C422,C3DD,C434,C55E,C7CE,CDFD,C3EB,CA63,CC3D,CDAC,D591,D4DC,CC1F,CA02,C531,C5B6,C59E,CE19,D27A,C776,C7DE,CC3F,C244,CC71,D10F,C871,D8CA,BFC9,CEA2,C5FE,D0DA,C51D,CD3E,CCC5,CD1C,CD97,C0E0,C100,C85E,BFAE,C376,C707,C7CC,D28C,C02B,CFBA,C9BC,C0C0,C768,BF06,C0C1,D26C,CAF3,CAF7,DA7F,D19B,B3E1,C472,C71D,D56D,DDF0,C59E,C437,BD1D,C997,C00F,CC2F,C78E,D707,C282,C02B,C088,C9A2,C9AD,C59F,C8F5,C47D,CA47,C1E4,C36D,B9BB,B543,CE58,C7A3,BCB4,C2D9,BDA5,CFBB,C433,C25A,C5F8,C23A,C29D,C0F4,CA03,C054,C593,C780,C429,BB59,C951,BCB2,C4C6,BF3F,CB4F,C1AF,BB35,BEAC,B849,C77A,C285,BF81,CEF7,CD57,C9AD,C1C8,BF51,BF35,BA0B,C5BC,C342,C86F,C195,C02D,B6FD,BEED,BA30,CD39,C0EA,BCC8,C3F8,B621,C49F,C7CF,D2FD,C0F2,C2CB,BE80,BE5B,BDFE,C24B,BD76,D116,CF9A,C98F,C485,C5D4,C35D,B206,BBC5,BABB,B6DC,C133,CF46,BD18,C9E8,C01E,CBBB,BD43,C22C,C342,D086,C2D4,CEC2,D412,DA63,D234,CC6A,C95C,C6D5,C070,C2F8,BC2D,C615,C507,C9D4,BD5A,B95D,C6C9,DA38,D4DA,C94E,C1DB,BD54,C8A3,BC0F,C3BF,C2F3,B8CC,CA9E,C606,C7F6,BDD5,C7E5,BFF4,B3FE,C104,B742,BB74,BC47,B95E,BE06,BFBA,BFE7,C333,B9ED,C5DA,C5D3,CBE6,C3D7,C393,BAB4,BCCD,C28B,B622,B90C,B52F,C177,C539,C3C2,C006,C668,C65F,BCE5,C127,BEDB,C488,B44B,CBCF,C5E2,CA43,B9CB,BB4C,C8E8,BC8D,C92B,B257,C2D6,BE43,BE5A,BA7D,C3E5,B25B,BC6F,B30A,BC27,BC38,BAE9,D11F,BDB8,C71B,BB98,B7F8,C3A3,CEDA,C6F7,CC31,B86A,C304,C072,CA0F,C58C,BB15,B592,BC01,BD42,CA25,C680,BBE7,B7BD,BA04,B6A4,BBDC,CCC3,B9C6,B7D2,C0E0,AD52,C3A5,B75F,C69D,CC4A,C69A,C6C6,CF6C,C0E0,C4F3,CD66,C722,BBE3,BB08,B382,B298,B7EB,C160,B158,C797,B959,C735,BD19,BBD8,BD8F,C0BA,C081,C06C,BDD4,C1B7,B9B7,C673,B831,C70F,C61C,BF88,C31A,C2DF,C337,BDEC,C112,B999,C157,B584,BF8A,B9F3,C2E4,BBC3,B64C,C15E,C2A5,BBC5,B8F3,C0F7,B610,B960,B76F,BEB0,BF9C,C2C4,C473,C4B1,B54B,C0A8,BEE5,C71F,C1C0,C0A1,BFCC,C07A,C408,BB1A,C732,BB2E,B749,C76C,B6E3,C2E1,C00F,BEF6,CCF4,BFAA,CBD9,BEC9,C481,D118,BB14,C2F7,CDDD,C436,C391,BFC9,B8F0,C468,BA92,C4A5,C08B,BEC1,C239,B2A7,D017,B4C5,B707,C40D,C0F7,B78B,BB7C,B1EA,BA6A,B3C6,C21B,C165,C243,C637,BF63,B741,BB26,BF20,C4DF,BB46,B80B,BA20,BC94,BAB6,C6CE,BD71,CA9F,C68D,AD1F,BF21,CA05,C211,C089,BE4F,BAF8,CABA,C286,BAFE,C9A0,BC7E,C265,BBA0,BC04,C3FD,BBAF,C028,C2A8,C9B5,C0A3,C541,C05B,BFC6,BA89,BA14,CAF1,C733,BE0E,C36F,C0C5,B8A2,B81D,C09A,CA8D,C858,CDD7,BFC6,B7BA,AB5C,C566,BCD4,C033,C2DC,BABA,CFBF,C279,C562,C795,BD6A,C225,BF4F,C1AF,BBDC,AF90,C40B,B1AE,B666,BDC3,CD35,C4B4,C73D,C258,BF8D,BEF6,C18D,CA3D,CFD6,CBB9,C8D6,BC3E,C81A,BE3A,BE29,C2F8,C5DF,C7C3,CF85,C441,C461,C689,C759,BE30,C55A,C22B,C180,C3EB,BC4B,C362,C50F,BE5C,C7E3,BD4C,C9EB,BB40,BC7F,C039,C1B2,BCD0,B906,C72E,C7D9,C2D7,C1A7,C79F,C323,CE00,C8F4,BB63,C02C,C769,C3E2,C849,CAFB,CBE6,C7FC,C6B8,CCC2,C4A6,D15E,D232,C15D,C95B,CA85,C5EA,CD8B,CAA0,C115,C28A,C4CB,CAA0,C6B4,D46A,CF2A,D034,C732,D9C7,C972,C7C4,C602,D3CE,C596,C814,B928,C64D,CD49,BC8C,CCC6,BD92,C218,C5BA,CB23,C84F,C251,C320,C6E4,C2F2,CE65,C3BD,C188,B8CB,C602,CBC5,CAA6,C763,CDBB,C590,CD9D,C6AB,D3B4,BF4C,C48E,D517,D10E,C746,C524,CB90,C638,D02E,BF88,C668,C0EA,C9AC,CAC3,CF93,D215,CD9E,C667,CBF1,CB9D,C994,CB35,DA78,C2EB,CDE0,D371,CE27,D128,CC83,DD74,D55F,D7B2,D837,D832,DA5B,D715,D024,D730,D765,D677,E290,ECDF,D71F,D492,CFD3,E1E0,D584,CF67,CEA2,D52C,D20A,D504,D1D1,D510,D246,D8B5,D2ED,D7D9,E167,D70C,DF0A,D7BF,CB31,CCBE,D2E4,CFCC,D154,D0F0,D384,DD56,D37D,CF55,D649,DC81,CDB3,E228,CCDD,D415,D9AF,DF1C,D7F9,D393,D27E,CCD4,D4ED,E5A0,DD6F,D796,D7B3,E884,E107,D873,CF89,D8E3,D496,CEDC,D8B7,D099,D1BF,E00E,E4AB,E710,DE3C,EB33,DF7D,E358,DD4C,EA39,E0B4,F163,E860,E930,EDE1,DBA1,E017,E462,DF76,DB85,E7EE,EDD1,E3AE,EA33,EBB9,F984,EA88,F753,E63F,D9D7,E23C,D9C5,D7B7,D4DE,CB84,D8E1,D4F9,CE99,D5D6,D5D0,EC29,E4D4,DF64,E1ED,D43C,D312,D4E5,DA5D,DEA5,DB1B,DC69,CFFE,CCAA,C9EA,D6B0,CB8D,C498,D43B,D120,CC81,DAB9,D8BB,E98A,DD90,DA53,D227,CBF6,C3D9,D900,D26E,D153,C788,D40D,C43C,C56E,D821,D7F8,D25E,CF64,D2DF,D629,CD7F,C41B,C62C,CDBC,D5A1,D2D3,DCC7,D359,D193,D76B,E4B4,E9ED,D9D6,CA49,D04A,D21F,DE72,DFB0,EC4A,E0FD,DEA4,D78C,D190,EA4F,DC61,E9E1,E12A,F34F,F166,F858,1083,01DD,039B,0037,08AD,11A5,27E4,1F1B,24B2,2AF8,2694,09EE,FDBF,FBF6,017F,1410,1810,18AD,01E6,05CD,FB55,E989,FDE5,FE2F,E500,ECCD,DFB3,D982,DC09,F4C8,09C2,03F9,04A8,070A,04BA,12E5,0E2D,0BC5,1B8E,1CD1,185E,093C,1868,13CA,19B6,0B96,13B1,0E5E,04A7,053A,F373,F75C,FEE9,FB39,F944,02A0,ED86,F335,E0C1,E818,EDC1,04FC,FD3A,F1EB,F8F2,F05A,0545,0C44,F06E,ED27,FA3D,07A2,0166,FF5D,F2AE,EF19,E9B5,EB83,E24E,F3B6,02D9,041A,FF1C,016F,2C9E,24D6,1F9C,1C51,19A4,2577,12F5,3272,224F,2956,1D63,22E0,15AC,1669,1C0F,1FF8,204C,24B0,2019,200E,20CB,2269,24A5,223E,200C,1FCB,20B6,1A9D,2853,1C67,1904,1C6E,2250,26DD,1E49,212A,1651,2A3E,22FE,176B,1A1A,1CC3,1D24,1D0D,2886,1ED4,2A83,2BC8,2E28,274A,2A58,1AE9,25D4,196C,1810,27AA,252D,330B,1F44,1CB2,2434,2B91,3180,2E14,3A25,2647,2EA4,1938,2DF7,3418,2DAF,2FED,2196,31E0,35F0,2F6A,2CDC,2D7B,309B,2DB2,2D0C,2AC3,2D2C,1BE3,2554,2C7A,2A9E,2AC1,296E,35BE,3412,26AE,2233,31BF,3B96,31A4,2C9E,395D,342A,247B,24FE,272C,2623,1A1E,2129,224A,176B,26D0,2683,2709,217A,1DDD,1A9C,21DB,2C28,292E,3411,3496,2C6C,22C7,17B3,2560,2CE6,2525,2878,2A03,24A8,2EF2,30EB,2DC9,35D9,4245,385B,3884,2FFE,36AD,33CD,2D43,37A3,2FEF,2891,2C73,31C1,2613,29EE,35B2,3027,3395,3C64,3350,36A2,2950,2F3C,2896,2901,2D08,3023,2B0D,393B,3A75,396C,27D7,3125,3390,2FED,2162,3070,2E10,3554,3E01,2D7F,3E21,38CC,31B4,3716,393A,45B9,31D4,28E7,30E1,322B,3AF4,38D2,3928,39A9,381C,2AC2,3417,1FE7,20C5,357C,2AAB,21CB,2BE2,2F11,2DB3,287D,39BD,34B3,2DD5,3057,3B1D,302E,28BA,32E3,32C2,3292,38AC,2F34,355E,3599,28FF,36E3,3C9D,3AC3,391E,38C2,315F,352D,3BD7,36AF,33E2,38AE,2D00,3549,32A7,303F,303C,3D08,377C,3BC1,303E,3638,310A,2D61,2BC9,3E69,342B,317A,33F7,3B28,2DF2,361D,383A,3AFC,336E,2914,3329,3C99,36B8,39B4,2EDE,3717,3342,354A,334A,3F17,30B7,3330,3770,3260,2D9C,34B7,3C62,3F97,3321,398A,313B,4156,3CF0,38A6,3E7C,3EC6,3EF1,3428,36B2,2E93,3295,3967,3301,4008,415E,3E30,4462,411E,3C60,3B5B,3250,3986,3AD3,349B,37A5,2F03,3548,3AA4,2F21,2BFA,2FE6,2D8F,310E,3149,34BD,3E78,3134,3F76,3D22,382F,440B,3513,3F39,3CD6,326F,22BD,24AC,34DE,3B16,3CC6,43FC,32D4,37FA,3A38,3FA4,3E6F,3F5D,3C3E,3CB8,3C6C,36EC,3A3A,3334,4331,3C89,4617,4A03,401F,35CF,3850,3B79,3517,3579,2FFF,3320,3D9A,3515,3684,3C80,4184,3B85,3ED6,35A6,3975,3300,4385,3E25,3F1E,34EA,3BBC,3C72,3898,44B5,3D26,410C,34E5,3BF1,39C5,3CFE,351A,3B9D,3D05,4327,3EF8,397E,44E6,2E04,3E8D,3E49,3726,4A44,43CD,3721,3EFA,2697,367C,440F,3CC5,3A4C,36F4,3515,2DF4,3463,43D3,3BC5,4167,3670,3E72,3FF3,3654,3717,358D,397A,3401,454E,3B93,2EC7,3A59,41DA,34B2,3DD4,3C6B,29E3,476B,3C62,4513,39FA,33E3,39A5,39C3,3A11,402F,3576,2D96,44EB,3FC6,3A0B,4BF5,3A60,3FCC,485B,452F,3E78,332A,382D,3A7A,3BBF,36DF,423B,4254,39BA,339F,3FB0,3DDD,3FC1,3F7D,3B36,458C,3E22,3371,3C1C,3F35,3A5A,3867,33F2,405E,3C53,3A80,4150,388F,3506,40FD,3F84,3AF0,40AB,39CC,3750,3BFC,3B9C,3CB8,37FA,39F3,2E7D,3591,3A67,3BC3,3F77,225E,41FB,3984,48AD,39DD,45BF,30DC,3B23,47D9,3AB9,414D,3D48,3CDB,3427,3B69,3982,356D,3BEE,441D,33B8,42F4,3688,42E8,307A,40FE,37A4,4385,3CF3,426F,38F8,354E,419F,3E36,3BC0,3D19,3338,3761,42F3,3EA4,3E57,330F,3D85,355F,3BE7,3A7A,35FB,368C,3996,3AE4,371F,4444,43A0,3A44,3F6C,4390,2D32,3638,329E,34E7,3C31,4009,40B0,3CD8,31A0,3ECA,3D7C,4510,38FB,3DA7,3BC3,3812,3DA4,39B5,409E,427D,2C5A,3B7F,324F,44F3,302C,3931,36C0,3998,366B,369E,370D,3485,37D0,308D,401C,352A,3EBB,3D52,44FF,3848,3AEF,3200,351F,3CDB,3CCC,3E12,426E,427C,4028,3635,364D,3FE2,349D,39A8,3A53,4356,317C,3624,3490,38FE,3ED3,4635,4A73,3873,3AA7,3F6B,40EB,3BE4,40B6,4019,3DF5,38AA,3757,3EA7,35E0,3228,2D45,35C1,3674,3BC0,3AA8,3819,2D89,3627,34F1,2F6E,3C2B,335B,37F7,3674,3D29,309F,32D9,2F57,2AA9,3D24,4009,3C7A,2FC3,3A2B,34F6,2D81,3368,4581,38BD,354D,3F6B,3BA1,32CC,367E,3177,3649,32EA,2FEA,3281,309A,386A,4162,353C,3B76,3B87,38C7,358F,3578,37B4,2FFA,2F09,3C55,2D9D,3972,31A8,3499,32D5,3A75,2D13,2FD6,2E83,33B2,3811,2959,31EE,3493,2748,360D,29C7,3079,2EBA,34B5,3234,2CA7,2F20,3575,31A7,30B2,36D2,340B,3138,2645,3A4E,2855,314E,3118,3916,3AB3,2C93,2E02,32F1,2829,2EF2,35C1,302F,29B6,22A0,3537,25D8,31DA,24AB,2DBD,3C4D,2ED1,31E7,30C0,36EB,369D,3518,2FE6,2D8F,2D72,2F38,2073,2A75,2F60,2866,317F,2240,2B3D,33E2,20BC,2B2F,2ACC,2FEB,206C,2BDA,27A3,25C3,23FC,25C4,251B,22BE,1D2C,1F71,2089,1FC3,2845,283F,29CE,297C,1D9C,1F3F,1DEC,175B,11CC,1B2D,191B,17C3,1EA2,2FFD,2261,2A4F,2536,2DA1,2D76,1F12,290E,21D6,1F2C,1CCD,2812,15B9,2216,2A1E,2E5B,19E1,2512,260F,2917,25A3,2676,1E85,1DF0,257B,2EF8,2344,2B0E,1EE2,2743,208E,18A4,1D05,1FD3,2A51,17D0,1F99,2381,2073,28F2,235B,2658,2513,1D19,25E1,2558,1B6D,2285,1F8F,1FF8,26E7,27DE,19BB,1835,192F,22FA,0B7B,1916,217C,1E5A,12A3,1C55,157D,18B7,1714,10DB,1B58,1AFD,19B2,1B1F,0C28,1553,18B4,183E,14FE,087E,FF23,1993,17BC,119C,1BD2,15B1,1F6D,1B8E,1C76,26C9,2BA5,2495,27C7,2352,1D95,1A64,14F4,20EC,1C06,1DAD,2873,2270,2B32,2701,26C5,129E,240A,2449,29D8,286F,23E1,2172,1DBA,2A40,1EDA,1A1B,0F72,1E62,281B,2181,1F05,1A32,227D,2734,282F,2797,2A8D,21EE,3D6D,2F8E,211C,274E,25D9,30B2,28F3,2D1E,3005,236D,3A00,325F,269F,2F1B,2D46,2099,16FA,1B4E,13C4,180D,2353,3311,2455,28E0,1DD2,19F3,1438,17F6,1538,2268,227A,1571,1AFF,1766,1677,16BA,128C,F85F,FBF2,FB90,FD49,FC94,FAE6,E7FE,EAF5,E19A,E9BA,E170,DD6B,FA82,07A1,0988,0744,F146,EF86,E9C6,F32E,03E6,12BA,156C,0404,079A,0C8F,1569,1F42,2926,1EC9,0BD9,0771,F326,F895,F000,02C4,E6AB,FF86,F574,F23E,F3C2,EC7B,EA07,E998,EA2F,EBA4,EECC,F696,F65A,06B3,0380,0E08,0595,FF8A,FAF1,FD79,0503,11EF,173C,1B27,1B01,1052,FD8C,0331,0D35,0219,F9AF,F8D9,FF5B,FE6A,0A1F,0423,FE1A,FD27,FF4D,0369,0751,1401,1ADB,0996,1266,0119,F512,F5C1,016F,D3EF,CB85,D647,E13C,E978,D2DA,D96A,E0CD,D017,CEDA,D6A0,E262,E146,EA9E,DC0E,CE44,CA57,C809,C8EB,CB95,CB99,D089,E6FF,C8AC,DA1B,E5C6,D4E3,D0D4,C4AF,CE8C,D667,D0D1,D3AD,D95C,E544,DA3F,D961,DF9C,D31F,E293,EAB3,DF60,E741,DCF7,CBCD,D852,C594,DB79,D189,D3E8,E134,DB80,D2E0,D923,DC51,D6E8,C9ED,D8CD,D36E,DA60,CED9,CD73,C8A2,D029,C1AB,D893,D491,D21E,D67D,CBF6,CC07,CA59,CB2D,D182,CB78,C71B,D29D,CF39,CE23,D525,C802,CAAA,CB7B,C541,D33C,D450,CB2C,C515,C9DE,C592,D542,CDCA,CBED,CA1D,C6C8,C857,CE87,CAA4,D0FF,D073,D326,CD47,D163,DB62,D035,DA62,D77F,DB66,D119,CB36,D8CE,DFAC,E24F,DC86,D965,D564,C327,C6CF,CF04,C654,D34B,D636,D47B,CF13,D8B0,D4FA,C1E2,CEFF,C95E,B988,C1DA,C50C,C777,C6F8,C049,C91C,D8FF,D0DD,C1D7,BD44,D1C4,D07B,C567,CBD6,C5B1,CEB0,CA4E,C3FC,C22C,C02A,D9CC,DC13,CF23,C6EA,C899,D100,C2CB,C1E8,C9C4,BCEB,CF94,BAA9,BF12,CF30,C889,CA42,C806,C7D3,BACF,C662,BE2D,CBCA,C6F5,C6B3,C2FA,BE33,C697,CE47,CE88,C26C,C709,BC00,C8EA,CB40,C040,C26A,C6FE,DE72,CEFC,CACB,CB22,D4F4,DD6C,D3A8,C24D,C122,C565,C05F,CA72,CC90,C3C5,C591,D099,C765,C9DA,C779,C5E2,CE39,D570,C985,CE8C,C695,CF95,C216,C32A,BF21,C639,C476,C208,C865,C8C9,BF71,CB6E,C714,C3A6,C4E4,D3B1,D3BB,C146,CA3E,C165,CA03,CAEB,C13B,C98A,CC58,C6BD,C9EE,BE1B,BEF5,C546,C3AB,C311,C09B,C751,C476,C3F8,C1FC,C4A3,BF24,C361,C1F2,C0E3,D1A1,CF01,B8E7,B422,C04A,C8F6,CA3D,CB98,CB7F,C13D,BE94,C646,C27D,C5E6,C231,C855,C4E3,C4BA,C7F9,CB66,C3DA,C6AF,C616,D3E3,C94D,C432,C40C,BF39,B170,BDB7,B4C8,B6A3,B6EF,BC4A,BAAD,C4A9,C111,C7C7,CA43,C727,CA56,C8F7,C4E0,CECB,C3E1,D735,D2E9,CDB3,C8E1,BB5A,BEB5,C37E,B634,C4A4,B70E,C62F,C04B,C947,C521,C9CE,D414,C9CF,C7EA,B941,BEDD,C84E,BAE7,BD38,B60E,C120,C0FD,C4F7,B747,BC16,CB9F,C1EF,B9F9,C2CA,BD3D,C032,BFC4,C26E,C77C,C8D3,BAAA,BCFC,C825,CA95,BD57,BB71,C1D9,B989,B213,C16A,B715,B70A,C071,C385,C5C1,C014,BC0C,C954,B731,C374,C06E,CA44,C45F,C159,C058,B9EA,BAF0,C654,BD4B,C281,BFAD,B11D,C32C,C62C,CD22,C012,CBBE,BB0F,C566,C91C,BFB3,B47D,B85F,D47F,CCA5,BFEC,C322,B5B5,BC33,B550,BECF,BB22,C28C,B7F8,C33F,C7D6,C025,B9F7,C70B,C28D,B5B1,BA1C,BC35,BFF1,C42F,C772,BFB4,BC93,C565,C173,B7A7,B80B,D0F9,C04E,B8D2,BCD1,BADF,C03B,B57B,C55F,B430,BADF,C134,C35E,B773,BFC4,C51A,BC01,C833,CE7F,B86E,BD7F,C74C,BF31,BF17,B4B3,BD58,BEA7,C477,CF1D,C0CE,C0CE,BD2A,CD63,B1A7,BDB4,C571,C002,C3AB,C1B2,C4FD,C5A9,C394,C1CB,C65F,C4CB,BCF8,B8B9,B5EE,B96A,BAD7,C6C9,C2AF,B4B7,C453,C4BB,CB7D,BF02,C269,B893,BA38,BF1B,BB28,BC13,B543,C1EE,C801,BC83,C00E,B6A3,BC66,B5B3,C98A,BD8A,BD9E,C531,BFAE,C2D2,AF3A,C113,BD49,B378,C434,BF20,C4B2,BA7F,C6C4,BFDF,BE3F,C1F3,BAAB,BF2D,CD77,BFCD,BFDF,BC41,C19D,C9FB,CF09,B751,C67E,BF70,BF99,BF50,BD7D,ABEE,BA88,C62E,B7D5,BB81,BFD2,B92C,BE30,BC86,C7E0,BD13,C619,C2CD,B590,BCB4,CB75,B895,C17E,C11C,C3EC,C86F,BF87,BEB9,C939,BDCF,C4BA,B70D,C93C,BD8A,B609,B92B,C66D,C1BE,C122,C573,C31A,C3F7,BFC8,C32A,BA63,BF07,C043,C055,BAD7,BDF5,B1E9,BE90,CA5E,C95A,BF78,BF79,BA45,BAE3,C2F0,BC8F,C0FF,C584,BECA,C79C,C8A0,B60E,C30A,C296,C379,B5B8,BDF0,BA8D,B8DB,C490,BEC0,C15C,C60D,BB29,CB13,C8EB,CD34,C526,C540,B5B3,BD21,C2F6,BBB6,C89F,BD98,BF3C,CCE7,C1A7,CB9E,C537,C4A3,C0AF,C7D3,D256,D024,C07B,C1F9,C82B,BCC5,BEC2,BFEE,D05B,B522,C36E,C8D3,C309,B783,CCF7,CE04,C2C9,C330,C312,BD6E,C86C,B5FE,CAB8,C9A6,BDB8,BEF4,BB5C,C6CF,C9B8,C734,C53F,C064,B271,BF25,CF75,C0F8,C0E0,BE6B,C505,C72A,BE91,C007,BBFE,CC99,C150,BB27,C13E,BE97,C7E6,C71E,C65A,C410,BF71,CB39,C8D4,C261,C799,C545,C82C,D767,C891,C347,CF65,C9B3,C215,C4B8,C5F0,CCE2,C5F9,C803,D19A,CFD0,C773,C2DC,D6B3,CFB8,CD0F,CA2E,CB87,BD44,B5B9,C8F9,C0EB,C4C0,C9E7,C759,CCC5,C9A9,C6BC,CC2A,C38F,C6DB,C54D,C758,CA08,BFA2,C4F4,C8C7,D04F,CCC7,D047,CF69,BCD0,C042,D09D,C96B,C4BE,CB07,CE1B,C513,CBFB,CF91,C748,CB91,C635,C850,C560,D67E,D28A,CDF8,D681,D180,C267,C95C,CA7F,D8A7,C7D5,C8A1,D440,CEEC,D23E,C462,DDF1,D1E3,CF07,CE3A,D47A,CE5A,D23C,DB7B,E0F5,DFBE,E108,DD5F,DEB7,E701,E594,DD05,E5E3,DC7F,CE4E,C701,C6E0,D1B7,CFE2,CF76,E239,D572,D0B5,DBBA,E2D6,C256,DB69,D6AB,DE92,CE3C,D1E6,D231,DF57,D637,D094,E374,D67B,E048,D925,C971,DB1C,CE57,D959,E836,D03C,D57E,DAF7,DD31,CFEE,D01C,D1BC,D121,D31D,D778,D121,D019,CC60,D0F3,CE1F,C9F5,D506,D368,DABD,E1EF,D0BE,E1B5,CD0E,D8DF,DCD2,D26B,E21D,E5C6,E7BD,E1E7,D97E,DF52,EAFF,E22D,D4E9,E1F1,F453,E0F4,E20A,E324,E06C,DBDE,E5F0,EEFC,E79A,EDD4,F19B,F327,EC5E,EE6A,DC82,E66F,D383,DD0C,DD71,E1AA,D19A,DCC1,DBB7,CCFC,DDA7,D7A1,D93F,DDD7,E2BC,E28B,E1FA,D3F6,DB4A,CCEA,D720,D0E5,D00D,DF41,D772,DB76,D704,D1FE,CD7A,C8A3,E044,D863,D7ED,E8EB,E99A,E77F,DADD,D67F,C49B,CBE2,D3AF,CAA9,C6FD,C5F8,D347,D353,D224,D0F4,DE14,D8D1,C1DF,D160,D355,D0EF,D1D1,CAD4,CFC7,D039,DCB3,DF3A,C759,DB00,DD8E,E308,DF59,DAFB,CC6D,D67C,DCAB,E1FD,DDF8,EDA5,E507,D71C,DFFC,D1AF,DDE2,DE3C,EAD4,DD1C,F074,EE8F,0313,06D1,09AF,0636,021C,1784,18EB,2299,29A0,22F4,254F,2668,0835,F618,FD48,0362,07F7,0EC0,0A78,0CBB,0244,ED53,FC0E,F584,F479,E37C,CCD4,E5B7,D685,E8D8,F4F9,01C1,07D9,0D1F,0000,0BFE,0C92,0685,1724,12BA,09AE,0C66,0B71,0C26,1AB6,2247,1858,104E,FAF8,0C5C,FD00,F3B8,00AE,018D,0B30,0C63,FA30,FD6A,E4EB,E427,E94D,EB52,EDD5,0A50,E824,F96F,F3A0,FFD1,01F8,FCA0,E6BA,F9C2,FF2C,01D1,0AFE,F114,F835,E647,EFF5,E5B6,F409,05CF,04FA,FE30,016F,240A,29D5,3055,1A99,2B19,2DDE,1A24,238F,207B,28F3,27C9,1B44,1DA6,17D9,20BD,2B9F,26E8,2BC6,2C52,34C1,2888,2654,2C19,2A6F,1CD0,271C,3226,1F3F,2100,3AE0,28BA,2063,33CD,2DA4,20C0,1B8C,2670,2F72,20F1,1A35,1499,18EE,1A48,2444,2292,31A5,23ED,331A,2F8F,2DE0,2429,2ACD,27A4,2FE5,233D,28CB,287D,22D5,2514,25AA,2F9E,2A0E,2663,3377,31AC,3303,3C16,32B3,2C1A,2938,2E43,348E,341E,3491,3ABA,3EEC,2869,3230,3AD7,3107,3238,2DB4,3434,2528,26A5,39B2,2831,3EE0,2E27,2D43,3712,3BBC,39C5,339C,331B,2485,3627,31CC,3458,33EF,363F,2D17,3725,3169,2CAA,2A20,1934,2BB8,3030,2A41,37BA,23DF,1EC3,24C9,211E,2BE8,31A1,3807,3569,27FC,2855,2929,245A,2AB1,2E8A,44AE,3735,3434,41FA,348F,3C9D,361D,370C,31FE,35DD,3AD8,3036,3E0C,3070,385E,3B9E,3315,2CDF,314E,30EC,2E8A,3AA6,411D,3CE8,4198,3433,367F,2421,2F5F,33F7,37B9,428D,3952,37F9,3CD7,2D38,42F7,3B7A,3A23,3667,365E,427F,3B3C,4452,41C8,44B8,35E7,3828,3B52,3838,3E31,348D,31C9,3EE0,39F9,3B3B,3CA0,3921,3C62,4506,3DED,2D36,3580,2954,3C3C,2A74,2E4C,2627,2CCB,2D18,3C53,496E,3FE0,33F1,499F,3E59,33D2,31AD,3306,33C5,3F5F,3ADF,38D5,3EB1,2E39,2E4A,34FA,46EB,400B,3CCF,360E,2DC8,30A8,39E1,35E0,2AAA,3894,37C2,3B7A,442B,3691,41E4,3AEF,4085,3FF1,3576,30E7,316B,4296,3A63,3923,3E20,37CF,41D5,4ADE,3EE7,46E7,4540,409C,29BF,3DBA,36F6,37E9,36B1,4237,3F38,37F4,3C74,3DB7,4156,4B6C,3D8F,401F,3817,353A,3A2F,3375,49DB,3BD2,42C2,3543,3389,344D,3836,40B3,3864,3EE8,3554,351B,41CB,3C19,3AF0,3717,3C0E,3B66,458C,453A,4E80,46AE,4835,3E38,3DB9,38B2,4D02,2D9E,4D27,39E7,4015,32CF,3E55,3E0F,405C,2ED6,2272,21EE,31D3,3A73,3F1B,3759,457D,3CCA,44EF,34C7,363E,3FBF,3841,3ED1,219B,2557,37EB,37E5,374A,3F32,4206,3550,4154,4334,4533,3612,4814,3D2E,494D,3B2F,415D,49A3,3F38,481F,45E9,38F4,3F4A,40C5,5316,3B96,3D43,3616,361D,2FE5,3727,3FA4,48F2,4659,43FD,45F8,4199,4663,4C27,3C5C,43FC,4015,3B34,4223,40FB,39C5,402B,410A,47EF,4997,3D93,35E2,41EA,3C0A,420E,49E7,49A3,445C,40A0,4C6D,350E,3733,4104,4A89,40F5,3615,43F6,3B9B,473D,3F60,43FB,4214,4088,3DCF,41BF,49F0,4431,4490,450B,4318,3CFA,3CB9,3C0D,44B9,434B,43B6,4477,4606,392D,4740,444A,4885,45DC,3FCB,42D3,4072,47D3,4370,3F2D,36BF,3F45,409C,3D4F,3647,3B0D,3C5B,3D11,326D,46D7,3F7D,392B,35FF,4047,4A82,41DE,4286,3413,3601,42DE,3DE5,3E97,3D30,4756,3CEB,3D7E,48C0,4205,3362,421D,3842,3D7D,43DF,3A7D,3F3D,3B97,3C55,41E6,4CC1,38EC,4220,4B3C,4734,3E72,4229,441A,3C5E,459F,3924,3867,3B0D,5184,3A73,4DC6,3607,425D,394A,4094,3732,398A,3F90,3E38,43B4,4247,41CF,3F28,41BD,4751,4324,36A7,41D1,422C,415B,4676,2F6C,400E,462F,33FB,3BAD,3AAE,3F6F,3DE3,3F09,45DD,3A74,4440,4282,3E6E,4D60,3E44,4AD7,43BB,411C,4B13,41CB,44BD,464F,43D8,41F3,468F,3E9F,40A7,40E9,434F,3A70,4920,4063,3860,39BB,465E,477E,3F4F,4CA6,3D46,4881,45B4,3D01,44CF,466A,3FA3,4698,384C,4251,447F,448F,3A98,3FC1,3465,5285,3F4F,485D,439B,428C,458C,4791,4624,3A5F,4CB0,3B0F,41FC,43C3,4B96,48A0,460E,46EF,432D,4BCC,31BD,3F5B,331E,3F5A,41FA,3C09,426B,4246,38EB,4455,5140,3F37,3BEF,3A69,4619,3317,3D51,3B34,3ECD,3F89,3688,3DA2,3FBE,3A12,4073,3439,3A28,4224,46C4,4103,3E84,482F,3FF1,441E,4279,4659,491A,400B,38BA,3FD0,3935,3F5A,4430,3DF9,399E,3870,26DF,2FDA,34FB,3AE3,4824,2FC8,3923,4155,3F47,40B4,35A2,41A9,3929,3F42,3E54,2FF6,39F7,2DF3,3DC2,3BB0,4414,3DC0,42D1,3B8B,42DA,3E23,3884,4C26,3CF6,3543,418C,3F77,3D17,4244,39AE,3C08,4832,4311,41C3,39DA,3A54,3646,3F3E,4126,3EBD,2E55,3643,2E12,3C36,33CF,3164,44C0,3F5F,3AD1,337C,35B8,371A,3819,2F27,30BF,37A6,325A,38A4,3BE0,3D61,3A9A,3A9E,2A81,365F,360C,3B4C,33C1,2AB6,2CB4,2AAD,32E4,327A,3C8D,39C0,38FD,3455,3568,332B,302A,2F68,41B9,490A,3776,3D52,3A60,3065,33BB,3DE4,4ADC,3B91,3BD5,4614,31E3,3113,3085,2F3B,2E2B,342B,2EDB,316B,2D01,36D6,331F,3C4E,406E,30C9,36D5,3755,3208,3555,2F82,28F6,3434,2E94,35AB,2BB9,3908,342F,32FF,32CA,2DE8,23F7,2547,2449,327F,31FA,228B,348A,1F2A,2E45,2C36,32DC,1F6A,2677,2E94,2C9A,25C6,32BB,1582,22C7,2273,2094,22C2,2560,29EB,2213,3378,3CB6,2323,226B,3754,28D4,1F68,3488,33D1,25E8,2217,25C5,28E5,2330,20C6,3006,278B,2DB5,2BA5,31E2,2B73,3316,3044,25F6,275F,245C,34E1,2EFD,2460,34E8,1E69,2245,1F90,1FA5,257A,2C6F,2DE5,2C58,234A,30BF,280B,2655,285F,2176,3439,26FD,1D0E,2F03,2B89,2B88,2F6C,2BDF,2389,197B,22CA,2145,0F5E,1ACA,14EC,2131,165E,16DF,1563,0BF7,1EA6,1763,1EA9,15D8,1A85,27E1,1FBE,1EF3,1CC8,1BD7,1430,10FC,0698,127C,1690,29AD,2095,2568,2447,29FE,245E,29A2,276E,2920,2857,244B,21BB,2CEE,27DF,217C,2067,247C,2A1F,229F,27D1,2F87,271A,2C25,3336,2DD0,3565,2952,296E,297E,342E,29BC,3265,2D76,0B3B,14C9,2219,2210,23F8,2DB9,2FB0,3A1F,31EA,34A0,369A,2F0B,2611,378F,2FE7,29E8,220C,3436,2E00,2C85,2B30,3170,300E,31B4,34BF,3582,2E1E,2DF0,2ADF,18D5,2AA4,1B75,2283,2578,2953,261F,245B,1BC1,0A10,1952,1D1F,2E18,2B8C,27B1,17FD,17C2,253B,0D6C,1554,FDB5,EF33,0413,FDAE,094B,E99B,E04F,E8C2,F3F4,E6A6,E0E6,D820,F531,FEEC,FE41,0798,F789,E977,ED55,F7A9,0449,0742,0C89,09A4,04B2,1F73,16D3,2410,22DD,1B5D,0FE6,FF81,EAD5,FB45,F91D,F374,F65D,E5EC,EEAA,D844,F56F,ED2C,F19C,E7E3,DDEE,D418,E292,F588,014C,F881,01B1,0A0D,09E1,FEA9,F64D,EFB6,FDBE,1003,12F5,10F1,189D,0780,0844,0357,1007,FFB1,0252,FD13,F9EF,04E0,0A60,09ED,FEB3,FFB1,0486,04F1,05C4,1649,0F96,1552,118D,FCDA,F593,0554,016F,D25A,D955,D87D,E62F,DB39,DEC6,D5FF,D8F0,E468,D88B,E5A1,E4B2,E0EB,D561,D500,D287,D3C1,CF30,CE96,E0DC,D3F0,D412,D701,D7E1,CE2F,D528,E2DE,E049,D44D,CA2B,CE50,DE3C,D97E,D966,DB15,DB96,D43F,DD25,CE30,DB19,E16A,E7DD,E6D4,CBC7,D5A2,CBA2,D78A,CD48,C5E8,D411,D67B,D86C,D0A3,D012,D91F,E2D1,D0EC,CC26,DD56,DA2F,D7B5,C819,D11D,C50C,D4A3,C658,CD4F,D13B,D779,CBCB,CC53,D32B,D82F,D15F,D443,C6FD,D2A0,D220,C18E,D565,CEAF,CC4C,D3D9,CE9F,D335,D4E1,C4C3,C1A4,C2A6,C88F,CA5D,D172,C335,D2DC,CE86,C84F,C817,CA23,CFB1,CD7B,CB0C,CE59,D05D,D0BB,D84E,D1B9,DE18,D61E,D4E1,DAF9,CA47,DFC0,E2DB,DA17,DB51,C6F2,C972,CC4A,C829,CC6F,D6A1,D17D,D325,C88F,C631,CE52,D0FF,CAFD,C15C,D08A,C8CE,C9B5,BC34,C2FC,C272,C8D5,C909,CAD8,CB69,BA50,D673,CA29,CC6A,C75C,C508,C761,D54C,D02F,CB53,C229,BD56,D24F,C977,C7AF,C57B,D1B4,C62F,C324,CD7D,CAB8,C099,C32D,C93E,D145,C6AA,CB6C,C89D,C97B,C942,C4E1,C132,BB1E,C55C,BB0E,BEB1,BF21,C60E,D23F,C4E3,CC71,BCE1,CCE4,C335,BBF3,C7C6,C569,C577,D094,D1E0,BF21,CD93,CAB2,D856,C853,CAE5,BBB1,BD59,C7BA,C456,C04D,D6C9,CE8F,C5D9,D06E,C8DB,CAA2,C0A7,CB64,D0CA,CA3A,D001,D3F4,C7AC,C695,C04F,BF35,BD0A,C372,C401,B441,B785,C07A,C4D3,C3D9,CEEF,C6D0,C60F,C715,BC19,C9BB,CF80,C35C,C0B6,D2AE,BEDC,C42E,CC4D,C315,BB14,C240,C1BA,BC63,C284,C323,CB44,C473,C2C2,C1F7,BA3A,C085,BE53,CC52,C1AA,C6AE,C739,C082,BF29,BFA9,C139,D068,C1B0,BA27,C261,C37D,B7CC,C871,C840,CDBC,C723,D82B,C965,BE13,C261,CAF8,C111,D2C4,C942,C425,C59C,BCA2,C34C,C3FF,C329,B419,BAE5,C8DB,C449,B7D2,BDC4,CACF,CFB0,CBD0,C199,C4B7,BE0B,B0A4,CC9C,CC32,D456,D734,CE6C,CE2D,BDDC,C4FE,BF82,C6FB,CC26,BE8E,C26C,C760,C315,CB07,D815,D105,C664,BB53,C7B6,D004,C9C7,C822,C715,BF3E,C84E,BDF1,B884,BF5E,C297,B9EF,B295,C1E9,C46A,C26F,C228,C3A8,C7BE,CB94,B600,B503,C29B,C927,D75D,D459,C915,BC64,BC8B,BC8D,BEA3,C2E9,C290,BC38,BE93,C5F5,C16C,BABB,B833,C3CC,BE25,BF9F,BD9F,BF01,C408,C131,BE84,C2C8,BDDC,BA44,BE4D,C447,B75E,BED8,BE7E,BDF9,BFDA,BB65,C569,BA5C,BD44,BFC0,C22F,B17F,BBB4,BBF9,C624,C8D3,C31E,BDBA,BAB0,C161,C432,B8D4,C237,C407,C20D,B874,C6AA,CAB4,B6AC,BBE3,BE6F,B6FD,C8A2,CA29,B739,C6BD,BD13,CB65,C524,B8F4,BE98,B60E,BCBC,BB80,B672,C560,C699,C37D,C361,CA5E,C4C5,B889,C31A,BEB6,C8EC,C572,C03A,B637,BD49,BFD0,B7E8,CD41,B7A6,BF15,C530,C4D5,B9BE,BB06,BDB8,BD91,BB75,C131,C2BF,C023,C172,BB1C,C389,C807,B921,C31E,CB97,C20A,BF9A,BF2D,C1B2,C01B,AC6D,C25E,B2DF,B41D,B7A2,C574,BD56,BF6B,BAA6,C15B,C42C,C726,B99F,C186,B746,BC22,BA97,B88F,C3C9,CB6E,C1E4,C0D8,AE8B,C693,B83A,C78C,B389,C342,C397,C04C,C62B,C2D3,C975,C44A,B897,B7BA,BC0A,BAC2,BDA8,CD4C,C2B4,C55F,BE78,CA68,BB89,CC1B,B365,BCD5,C26E,CA45,BDE4,BB74,C20F,BCC4,B55B,C443,C02A,B70F,C3A7,C6D9,C006,C16B,C4BC,C4E5,C438,BBC6,BA3F,B635,BC3A,C403,C14C,B76E,B878,BAD4,C52F,C802,C018,B94D,B7FD,C315,C83F,BAE9,BDEA,C3C6,C939,B843,C944,C0F1,C2AA,C158,ADD6,C14E,C4BC,B88D,BA0B,C7C5,C6CD,C61F,BA45,C12A,C2ED,B9A6,B954,BAC5,C5F5,C78D,CE59,C886,C1F3,B9E2,BBC6,BE29,CFFF,CAC1,B6EB,C730,BEC0,BB78,C777,C496,C3B7,BFF7,B45B,C092,BDFE,C13B,BF74,C60B,BBF3,B997,C36E,BAF4,C852,BB73,C90B,B946,B2E4,BB4F,B3F0,C825,C616,C0F7,C676,C3EB,BA3F,BC9B,D239,C8C9,C51E,CA9C,C48C,CCD7,D055,CC15,C309,B56F,CBF9,C14F,B8E0,C6AF,B771,C9DC,BB97,CB4E,BB98,BF21,CFA6,CF29,CC71,C78D,B5C2,BFCB,C614,C8DF,C732,BAF8,C835,C5AD,B7AE,B6FF,BD9A,BC8A,C300,BA7C,C0B3,C3CD,C35E,BB9A,C78B,CA7E,C526,BC6F,BBB5,C0F3,C5F2,C8FB,C6FA,C0F3,CAC6,C823,CA32,C44D,C986,C34A,CBD2,CDB4,CC2F,C9B2,DD52,CC6E,C9BC,CAC0,BD56,BC70,D339,CD17,CA19,C4D3,C5CD,CB07,C6AF,C38F,D3A5,CA3E,C784,C355,CE0D,C270,C369,C5C4,C4A5,D8D0,C76B,BF3C,CB2F,CDC4,CD94,BC5E,C4D0,C9D5,C599,CDFB,CC7D,C688,C5DE,D001,D196,CC87,D86B,D3BA,CE6E,C331,CEDA,CEBE,C2A1,C5E7,CDFE,CE28,D407,CC88,D257,CC5E,CC76,C19F,CA41,C3CE,D385,C7E7,CA6B,C684,CC71,C1EF,CD2F,D2B8,C3B0,CCB6,D10F,CDF9,CF68,D0DC,DC01,D490,D269,E02C,CEE7,CFDF,D1B9,D781,D819,D751,D7BA,D573,D437,E293,D85E,DD45,E260,D8DD,E3EB,D482,D3B3,D0E8,DB1D,CD46,CE1F,DA20,D288,CFFB,CD5E,D3A4,CDCF,D9CE,DA01,D759,D1C2,CF1D,DED2,DDD9,D751,D3B5,DD87,D6C6,D6DA,CD97,D27C,D4F2,D11A,D5BA,D5A1,D274,CDB5,E3B3,D6BD,E035,DE25,DB77,D515,D7A6,D5BE,D764,DADD,E24E,DAAD,CCBA,C798,CC2F,DD44,DA18,D6E3,D25B,D575,D477,D6B5,D06B,DC3C,E22E,F54D,E7A8,E5BE,DFAC,E498,D89C,DD22,F60A,E236,E42B,E754,DA48,D0AD,E212,DB0E,E3B3,E590,ECB4,E210,DA09,E699,E791,EA9D,E8E5,DF20,E718,E111,D8F9,D323,CD94,D9CF,E570,D8DA,DB5F,CFD5,D612,DC37,DAC9,DD75,D4C0,DA79,D34B,D772,D106,D19F,D92B,CDA6,CA57,D784,D3DC,DA2C,C953,D810,CED5,E944,D1A2,E434,E4AC,F2C9,E2BF,D559,CF19,CDD1,D247,CF29,CF37,C51E,C72B,D3F3,D127,CDB0,D495,D854,D0C1,CCAD,D2E1,CA50,CC9A,CBD5,CED3,D330,D647,DA4A,DC7E,CC8E,D73C,D9F5,E5E0,EA82,D483,DB0E,C5DF,E334,E64F,DFC6,E96B,DFBF,DD31,D810,CEFB,ED4E,DFE5,E6C5,E16C,E86F,F026,0F94,0D10,FFCB,F73D,F4E7,113A,1756,19CF,1736,1930,26A7,1688,FFB9,FB89,F95C,F769,15E0,1BB8,0F6B,11B3,02EC,FB51,F27E,FAE5,F9D9,E8EE,E7D2,DDAE,D690,E62D,00CF,FE89,02E3,120B,00C4,FFEA,09D3,1411,FCF3,23E0,11AC,1B5A,0FD2,0D05,0EA0,14C7,23CA,1588,0791,0523,010D,FBC2,FA62,08AB,08F9,F7A8,FA9E,EBAA,F37B,DC15,E927,EB15,F517,F97B,FA62,F79E,0097,0E0E,0642,F9F5,F626,F6B6,F882,F8A3,F3CA,F602,EEEE,E67D,E22F,EC3B,F120,F442,05F6,0A8B,016F,2AE7,2475,21E5,2C81,21E6,2CBD,1C19,22B6,2009,26AC,1E45,1753,132E,2DA9,2AB7,2675,3205,3057,2987,2F2E,26E7,28B7,243C,264E,1FAE,2236,2804,279B,2C28,2AB5,2BA9,1E87,2334,276B,20C3,240A,296A,206A,17A9,1FD8,1829,12D7,2223,2B5C,27C3,29AD,2984,2297,2A83,3451,2700,35DD,251A,2611,22E6,24C7,25A3,2D34,25BF,1B09,30E5,2BA5,355C,369A,2FA9,35CE,2CD4,2AA7,24D2,2195,3AFA,2DFE,3968,2A6A,35CF,2E69,3001,3815,1BF1,2886,29F1,24ED,350B,2A35,3608,30DC,3429,23E9,2EB9,37A9,3031,356E,31E0,339A,2FA9,3318,2BC1,3575,3A68,35A4,2A8E,1C0D,2BCF,2829,2E76,35B7,26B3,3210,31DF,2015,2BA9,1D57,21C4,2056,345F,2842,34A7,37FE,2B2A,1A59,2BC0,228D,2F0F,3861,3115,3798,3097,34FC,4058,3290,37E7,3E98,3147,3531,3C9C,2E4C,3123,2485,3AA2,3CEE,351E,3D86,299D,3831,319E,2F88,3761,3B7A,38A0,3C9C,3314,3F17,2CA4,2610,2D65,33E8,3DD1,2E25,3AA7,39A2,3564,3418,2F5B,27C4,3B20,29D8,3288,34E8,3C11,3C8E,4361,3BB7,40D7,2FD7,38A3,34C6,3AC1,357D,3157,367E,3FAA,2A61,3E30,39EF,3048,39E2,383B,2412,2D42,3327,381A,307A,1F0D,2E8B,24AB,3949,3B7F,4499,37A5,3D95,2D44,32AC,2AD4,4175,33AB,3FF9,34E8,3453,33BC,3FDB,3733,3B7C,2BD5,390F,393A,480F,3828,32D3,28E6,374D,3755,4425,4127,3655,33C4,35BC,3635,3319,3F61,348E,3500,3A1F,3303,3C6A,3AE5,37E8,3DDC,312D,3A81,3FE0,42D9,43C1,3AC2,3ACD,4057,3B5A,404A,3CEE,3DB0,383D,3422,3BE3,3B02,3719,3A73,37C5,3DC7,435A,48F0,3AD0,3A2F,4076,4760,354D,3776,31E0,2AF7,2938,34B7,3C14,3406,3B44,3A5A,2D35,2C8D,3972,3158,3287,39A5,3E2A,3FF5,44A1,43D8,3DEE,4665,3DF2,3FE7,3E3A,385E,3F24,3BC5,3BE8,3B56,369B,3D72,3953,3143,3127,28F1,1F78,2E97,3511,42DC,432E,3D4F,436A,4541,3D4D,49AC,3941,3C82,3679,37FE,2D43,2755,3E7E,3FE0,3B37,36DC,362E,3CD2,463D,46FD,3AF5,3C13,4BCC,44FE,3C80,419F,4528,3B70,4053,38D0,3AEF,35AA,431F,42CC,3A03,3DC3,3B0D,310A,3339,3662,3B79,4111,4CC8,403F,4253,3DF4,3A89,41D8,4081,3A91,3860,4334,43A5,4592,3957,3891,4329,40EF,3E6D,4350,380D,3F96,4393,36AC,3A96,3A86,4110,3C42,3C00,46B0,398D,2D49,3AF4,3ABA,40EC,405E,48D8,3CDA,4206,3450,3E65,479E,41AD,386B,44E4,3CAF,3927,335B,3872,4B8A,3DD0,3FE9,39FA,317E,40DB,45F4,4551,3C86,3DA9,3C30,4983,36A5,4783,437C,3C07,499B,4451,4642,448D,4232,3F4C,3B97,3AC8,3547,3D30,3CFB,2875,3978,3A20,3DF7,3675,3113,3F61,32AF,3E49,41A3,44DD,3C59,3E56,3B15,2D1C,3D45,38A9,418D,39D9,385C,3DEC,3F52,3BA0,3A31,3C48,42F8,3CA0,3E38,36D9,3BD6,3E96,4313,43B9,320B,438C,40FF,3B4D,4A2F,3D19,41BB,3D0A,379C,4D29,41C2,326D,3AB0,3DDC,4596,3779,3A8F,415D,4566,3B56,3E7F,3956,4950,395B,3DD0,3E6D,3FC9,48C1,3B43,45F8,44EE,42C6,3439,4419,3AC4,3A8C,456D,45A1,49FA,3A13,423B,41EC,405A,3BC8,4AED,3896,3CDC,3FBF,3EBF,3BF3,3E50,412F,3E0F,40AA,393C,3B12,3547,3CBA,4304,503A,3541,3498,2E22,4489,3E8D,4886,3E19,3DEA,392F,3D77,3A46,3D9E,3585,3CC4,3D18,3B97,38E9,3AF7,4304,425A,3CB7,3F7C,3BBC,3A06,4350,42DC,44A6,3F93,3B4C,3FD7,39C7,45F1,3B2A,421A,3E89,4ABC,360F,4432,3E3A,3A31,3250,441E,3B0D,3D4E,3DFA,336B,36DB,31B7,2EDA,366C,32D1,36B5,4182,3F9B,373B,458C,41FF,3A80,3FBF,42C2,3BFE,32D8,393D,4085,492C,37F9,46D4,4072,45B9,3363,3CEC,452E,4538,39D0,3238,3832,3B12,41D5,3A9B,3ECE,48C1,4C53,46CD,3428,42EB,3C02,364C,3D27,40BB,3DB3,3C4C,24EA,2F22,3DF5,4100,3485,3EF8,3CE4,488D,3E99,3937,46F5,3193,377D,3153,3539,40A9,39B6,3753,3593,2E00,4466,5586,41BB,3ABF,39EE,3E0B,3DF9,3648,34BD,32FB,39D2,3832,3E6E,310B,3CD8,3CBB,3C06,36D2,3860,33DB,363B,2BEE,391E,39E6,39D5,421F,3C22,3901,3B81,390F,3B17,3545,2AB8,3C50,3B98,3A09,3838,3D85,372A,385D,3D9E,28E7,3F1B,322E,30B0,2DAC,2F9A,2A78,3A2C,2EE8,428B,2E9D,341C,3E76,2EB1,2C18,386F,343F,3374,3A65,34E0,3808,2EDF,32B2,306B,36A3,377A,318B,35FE,313B,3937,2F6F,3B04,2F2F,2ACF,3A1B,3C51,2A63,38F5,3076,2AAB,2EE2,398E,3C19,3474,376B,2D93,31FD,38CB,3476,2BD6,2BA6,3105,25E7,397C,3620,27E6,341F,3CBC,303E,3704,3504,3509,35A4,3369,2F29,376D,31A7,344A,1ECA,367F,233B,2CDE,2E08,29CD,1E91,204F,2031,2A50,2EBF,23B8,27EF,31B9,255C,22E9,21BE,1D36,1659,1FA0,29E3,2289,1F4C,2960,2E4B,2573,255C,32C0,3248,24E7,2518,2372,2606,1829,2CC2,23D6,299C,287D,28BC,24D7,2335,22C1,2566,2A97,234C,25CE,3593,2DDD,2A45,2958,20DF,2584,1EDC,219F,2504,2892,2776,27FC,2A97,26B4,2B54,2699,1763,2956,2CB4,27ED,16C5,1C51,24C3,1FDC,2D51,220E,28C1,1C00,241C,1D01,166F,15EF,1C6E,1721,0D77,0986,13D6,0E2B,1308,19A0,1873,14EE,08AC,21D9,2876,2600,1F65,1FA4,17E4,147A,2484,16C2,1680,152A,1060,176B,1E1F,10DF,23EC,1A24,24CF,2D9B,2D5C,21E7,2104,3594,26FE,2611,1E07,23EA,2775,1F50,1A43,1EA2,1FE2,2209,3606,3036,2B6C,2F8D,24EF,2E61,2702,2617,2F9E,2A86,1892,1BBA,2BC3,0A99,1389,1E0F,2F9E,285B,3673,2DD9,3A03,29FC,320E,2AD7,376F,2C5C,262E,25DF,2274,21E8,22E9,2E92,2CFB,32F8,344F,36BE,264E,332B,30B1,1D98,306F,301D,2410,1C83,1401,27FC,2560,229F,23ED,1EA4,2094,126C,185C,2486,3006,2690,1B42,1ABF,1D06,1A64,157D,0971,F6B4,F6B1,F1F7,0CB6,040C,E8AC,E219,E6F6,ED60,DC4E,E261,D84B,E7B8,008C,0D94,0533,028E,F27B,ED04,FC11,EE00,11E3,1135,045C,0627,12CD,1AD8,2A45,21B5,160C,0425,FB8C,F9B7,F605,F310,F408,F59A,EE2B,F1FA,EC21,EC80,F523,F214,E6E0,E8A1,EC00,EF7D,ED52,FEE6,F45B,FB36,03B7,0220,FC82,EE69,F9E5,FFF2,0A36,0E79,1518,1637,1C54,0C91,070A,0AB5,0E0E,F366,FAE6,F3B6,FFE7,1063,03D7,08C9,F655,0970,055E,1252,0DFD,1BBC,097A,0AE6,060E,FD8F,F78F,016F,D436,D0E1,E63F,E032,EC3B,DBB9,E09E,E25B,DDA2,DCB0,EA8B,D275,EF51,E9DF,E245,DCC8,CA99,DCB7,D2BD,D82D,DF68,D477,DA85,D7DA,DFA2,EA7B,E45C,DE35,D61D,CDF3,C4DB,CD8A,D5A5,CA40,E88E,E54D,E67B,D9F7,E307,E454,EA22,E429,E19A,DB07,DCD5,E026,CCAB,DBAA,D701,E908,D9B2,CEBA,D3C0,E81C,E63D,DCEC,DCE0,DB6A,D9D7,DAEA,DAE9,D45B,CBEC,CA76,D3EB,C3D9,CEC4,D72D,D068,DF4C,C8AB,CE66,D14C,D1CD,CBD1,C917,D586,CF49,D653,D157,CAC9,CBC9,D877,D331,D0E1,CF04,C5AC,CCF7,CC63,CBDC,D3AE,D89D,D4A8,D1EF,D6D4,CE1A,CCA9,D2D7,DD2C,CBF5,C70A,CC08,D64E,D255,D3A0,CF16,DEF3,D872,DD62,DD32,D64A,CF44,E6F9,E4F7,D676,D508,D0AC,CD45,D727,D605,DD83,DA61,DF48,D2BD,D75C,D122,C6F5,C8E5,C266,C787,CAA9,D45A,C30B,CA53,CC66,BFB7,D00D,C62D,D32D,BDF4,D0DC,CCA4,D8C3,D0E7,D905,C9CD,C63B,CBBA,C872,BE12,D7C1,CF1F,C9B7,D0BA,D1AB,C7B4,CDA0,CDCB,C9A8,C6E2,C434,D3F3,C543,C8E3,D4C5,CE93,CC49,CA57,B774,C064,D439,BEFB,BF30,C7F0,C198,C5C9,D05C,D03F,D371,CBA4,CDF3,CAA9,CE20,CE6D,C2DF,CD5A,D31D,DDE5,CDBA,C5DB,CA84,DCB6,DFEB,C80F,C6FD,C967,C295,BE3E,BF5A,C450,CB82,C766,C7DA,C689,C702,CFA1,C795,C704,CE3A,CED7,CB56,CC34,C74B,C6DE,C36E,CADB,CDC6,D13C,D2A7,D1A7,C495,CCD7,CE95,C623,C493,C818,C508,C5AC,C762,CB7C,C089,CC16,CA10,CCF3,D085,C363,C678,BEA6,C7BC,BB72,C77F,C3B0,BB5D,CE2E,C7ED,D3ED,CA03,C567,D0EE,C9A2,CD51,C2FB,CC62,C3B0,C842,C5ED,BBE3,C82F,B6C5,C194,C5C1,C556,CA20,BF90,C7FC,BADB,D24A,CF7D,C9DC,C8ED,C0FE,CC8C,CB01,C3E0,D0DF,CD79,D4B0,CCA6,C1D3,C365,C3E9,B74B,B5FE,B868,BD0C,C44D,C0DF,CF2B,CB84,BF68,C12F,C2EF,C7A9,C642,C02D,CF0C,D43B,CF87,D9BA,E266,D124,C022,BBFE,BF15,CEBF,C743,BE77,BE1E,C4B3,C54D,C78D,CEAA,D95B,DE4B,C528,C408,C2A6,CAE9,CEAE,C752,C5BF,C612,BBED,B980,BE28,C147,BB02,C202,BD9F,C791,C503,B78F,B6B6,C8A0,BC3D,BD53,C3E6,C46A,C114,C235,CAE3,B71F,C80F,C9E1,B73D,C5B6,C69E,C16A,C55D,C3B5,C16A,CC86,C89B,C32C,C29A,C160,C7FD,D0C4,C479,B978,C9FF,C293,C071,C544,C042,BB6F,C21A,C265,B89D,C1D0,CD1C,BF6F,BD66,CD0E,CE7F,BFC0,C48A,C283,C213,C618,C468,BF47,C40F,C4D3,C948,C17E,C22C,C1DC,C2E7,D586,C848,C2D5,BC03,C06A,C18B,C369,BF9E,C5D1,BC05,C741,C41E,BFA6,C17E,BCE5,C6C8,BC68,BB92,CA3A,BE83,BE27,C214,BDB0,CAA6,BBB2,BF51,C85E,C5A6,C4C9,C486,D464,BE67,CD36,BFF8,CB49,BD91,C195,C60C,C072,C007,C492,D00D,CCE2,B743,C369,C8C3,C09B,C55F,C6E2,C8B5,C0C6,CB5E,BD51,C133,C1CA,BD30,C44A,C8E5,C2B2,B595,C4EB,C3D1,C64F,C155,B810,C08B,B27A,BD2F,C37A,BBC1,C123,C37A,C02E,C48E,CA82,BF6A,C9E6,C661,BB03,C7C7,B9C4,C328,C1DA,C495,C76C,B8BC,BABB,BD3A,C360,C4F0,C3F5,C230,BDFC,BDBC,C27D,C8F6,BDE1,BD87,BCB2,C1AA,C3CF,BB8E,BBD9,BA57,D32C,C3F0,C1AD,C62C,C044,C242,C077,C750,C4F4,BF22,C936,C7B3,C60B,C3BC,C5BC,C27C,C72A,C2EB,C3A2,C504,C5AB,BE0D,C69B,BEFC,B65E,BBC3,BE5E,BED3,CE0F,C6B1,C0E6,BE09,CBBA,C66C,B913,CBFD,C976,B961,C7AC,C82F,C200,B956,C1C5,C092,C14E,BBC0,CA7D,BDA1,C476,CA70,C611,BC26,BAC3,C0E5,C642,C377,C91A,C1FE,BF36,BFDC,C01C,BDFA,C217,BC8F,C2C0,C18F,C985,C073,D164,C5B8,C09E,C58B,C396,C158,C3A0,B8F8,C390,C70A,C192,BD66,C4D4,CE63,BC57,C544,C485,C41E,C0D6,C197,B8F7,C912,B72D,C1BF,C147,CA20,C2A8,B5A3,C580,B863,C274,CE04,C164,C470,C1D8,C089,CD22,C313,C99C,C307,CF66,D8D4,D09F,CBD9,D0E8,D431,C9DA,CFFC,BD30,C51D,C4B7,C8AA,C77B,C5A5,CAC7,C57C,C17D,C30F,CEEE,C4F0,C882,CB2C,D450,C7AD,C44D,BF57,C27E,C212,C9D8,C4E0,CB20,C9E6,C5B8,CA15,BE99,D0BE,C12B,B424,CC1B,C80A,C6A6,C711,CAF4,CD7D,C6A8,CAC0,D069,C9C9,BEA3,C5B1,D493,C635,C16D,C2A4,C6EE,C7F6,CC6E,C777,C1EA,C271,CEF6,CD66,CA08,D2B8,D5FB,C74A,C0C8,CA9C,CDEC,D511,D2BF,D9BF,D506,D85D,C298,CA4E,C991,CFE0,CD63,CA79,CA99,C5F7,C7D6,D0C0,CA05,CB60,C829,BBF1,CC4F,BFFB,C7C9,CD09,C4F2,CFB3,CE95,CC22,CD0D,D293,CD81,C528,D530,C5AD,CA4F,D101,CD7E,C117,D6E3,C3F2,CB28,CFD7,CC6F,CC9F,C05F,D8D9,DCC1,C6D2,CFA3,C45E,D3F1,CFAC,C17B,C62F,CDE1,CF56,C773,D1F5,D2CD,D23A,D618,D933,E974,D7A5,D16C,DA09,D580,CECF,D5AB,D797,D206,D38C,D307,DC99,DA91,DC36,D1D8,D605,E2F9,E0DC,E736,E423,DA10,DB3A,E346,EC70,E29C,DADE,D8C8,D892,D7CD,D459,D78B,D71B,E2F5,DE69,E154,DC01,DE6F,DCB5,CE41,DB10,D286,D6DC,D629,D8EC,DB4E,DA9A,DFC7,D2B0,DEFF,CED8,D420,D716,D2B5,DECE,D67D,EB04,D6BE,D5DA,E732,DE57,CCCB,DB9A,E25C,D75F,DBDB,D495,E5EA,D909,E75E,D90B,D75F,E1FC,D81D,E0A9,E362,D221,E082,DE4D,E521,EC94,EE4C,F001,E13B,EE84,E4A7,E768,F2FC,E34C,E6CB,EEB1,DEF5,EAAB,E10A,DE6E,E794,E683,E8AB,EC47,E701,E968,F562,EDEB,F03F,E6C0,DD93,E87D,D662,D5FC,E237,D750,E1E6,D8AE,DEE9,E35F,DBE9,D749,D2D9,DC5C,DDEA,D429,DC64,D4D0,D9AA,D889,E3A4,D7F8,D783,D62A,CF8A,E160,C873,DD84,E160,D076,DB5C,DE17,E8EB,ED41,E7C1,E102,D14D,DB68,E049,D2D7,D4F8,C925,D7E4,D0BD,D826,D1A9,D26A,DCD3,E0B4,D3D6,DD97,CFD2,D422,D546,CBAE,D5E3,CDA6,DB18,C93B,DB69,DFB5,DA95,DB93,EA5C,DF90,DAF8,DFAA,E750,D7B2,E05E,EC98,E358,DE46,D8EA,E0C0,E219,DC12,F025,E093,F0C4,EEC7,FC82,0966,0470,FAD9,FC8C,04A5,1829,1CBC,1560,1098,2044,1BF1,10E7,F7F2,FE75,FDCB,0CDB,18EF,0FFF,0214,0498,0481,F2FF,F6BD,F20B,E999,F421,E1E9,EA27,E587,F519,FC1C,1763,0D86,0551,0169,03AA,059C,0C18,1C23,1858,1AA6,0D1E,0770,0545,16E6,1878,1860,05E8,04D3,07F8,F79C,008B,F9F5,10BC,1764,F9EA,F713,F411,EB44,E2F2,F3BD,F2D5,F945,0562,FEB3,FEF4,0A2D,FF39,F394,EF60,F6E2,02A3,F6A4,FB97,F6BA,EBA6,EEC7,E7A0,DE91,F543,FA3C,FF50,0213,016F,2D5D,2C62,1E64,262D,2BD4,1442,20E7,2A52,355A,2EE4,2C64,1D0C,10EF,2CE9,2A41,2A7C,2BB8,328B,2FFC,317D,3008,2B9B,31AA,2BED,1E47,2707,2BA2,2E7B,2C49,231E,2EF4,2BF9,29A1,2F92,1C75,2551,23E8,26E1,267C,1517,176F,1D24,1E12,2E82,2134,2970,284D,2D93,26E0,3027,25FC,2149,292E,1F53,207B,3221,19F5,1F78,27C5,2C96,3360,24C6,357B,3700,3707,317F,3541,347A,27E4,2F5F,3800,3101,371A,392D,3B38,361F,2BE2,335E,31FF,2ECF,36D5,30B0,3549,2EA4,2533,4236,2B19,46CD,3B57,3C80,356E,386E,33FF,38FB,3F8E,3263,33D3,35C7,37EB,421B,2B7C,3252,2A0C,323D,32E6,2C06,2456,265F,344C,261A,273C,2C92,201B,1F0C,3CCE,2131,321D,3990,34A8,3E49,2E53,26F6,2A84,235C,3FA9,39AF,3FBF,4587,263A,351B,41F1,4F3B,395A,370B,39D4,4682,3868,32B4,39C9,3573,3350,2F58,3A96,2F74,36CE,3B47,2F2E,3165,3952,3E3B,39C4,3D8C,32F2,35B9,3E6F,3A03,4672,37AA,33F9,4003,35E8,4329,3DB9,3B4F,2F46,3083,3C4E,4162,3FC1,45E5,44F8,4A96,3E11,45A8,3BEF,3567,36B1,344C,315D,3D7F,40FC,32BB,2E73,38AA,363D,36F7,352A,29F1,30AE,2CEA,3AB5,2B6D,2344,2E88,34EE,431D,39E6,36F0,3FE5,396A,3021,3802,3395,32AC,4194,42FA,357B,43F0,2DEA,34CD,35C5,3C37,37C7,43F4,44DF,48DA,44C9,3DCF,3BF6,3F1A,389B,2FFB,38B0,3666,376B,36BC,3889,42C8,49B5,3D56,3AC5,3C5C,35F7,3407,336D,47BD,2D12,3E5D,4326,3E05,3FAA,3CCE,3C85,425A,3C01,41ED,346B,36D9,3F58,4240,3CEE,3979,3E94,3DA7,3522,4654,3A5A,34DF,3CE4,347F,3292,4324,3E30,3ECD,3591,3049,4312,3CE1,3F88,3B29,3AEF,3EE4,37C1,3C6A,3F67,2DB7,2F9A,3E00,408C,3FF0,3CB0,450A,4103,3D22,4588,38A2,3AF2,4006,3770,427C,411A,421E,45CB,4954,4358,4291,2D6D,3B37,2AF2,2CA6,30EC,3B4F,4011,389A,49A9,4302,4916,381A,3D7B,489C,4396,3F66,2BE6,2E6A,2C57,3B58,49C0,3D2D,36FD,3756,45CD,3A24,4183,472E,460B,3E80,3DCF,4F18,3D8D,40B0,3FA3,3FE2,3E85,4383,47E0,39F8,3F4F,4119,3E15,37AE,3300,2ED1,3BB6,37F5,3984,4356,3B16,45DA,4560,4A7F,37B3,3DDE,2F03,425B,4AD1,3EB7,38BB,4083,3D2A,4114,39C9,39F9,30B1,42CF,3C77,3F49,45CD,47FA,4543,39F2,43D1,43F8,419B,3E20,3E41,42FA,3CD2,4023,3D41,3C84,4B37,3804,454D,47FC,3C4B,4A2F,44B1,41F1,3BE9,3F46,441F,3AAF,40F2,3C43,4403,49A3,3CE3,472C,38C2,4768,36DC,3F7A,3600,420E,4675,3CD2,37A7,3C00,4868,3E8A,4868,3FC7,355B,36DA,42FF,3FD6,430C,3A1D,39FC,2EE7,347B,40C8,3586,36D1,4998,3EFA,3F73,4225,4753,3FD8,4048,39F5,4561,3BE7,3CF6,3E14,3C20,42ED,3D19,3B88,3804,3F53,4B30,3B45,385E,3B22,49A3,42E5,4060,44E3,461F,4525,475A,44FA,3DF6,395D,4A79,424E,4487,4690,44DC,46CD,4727,3E57,3B8D,3882,43BF,40FD,380D,37ED,385D,3F39,3EBA,3F2C,44AF,41D2,42CA,4B2A,45BE,4546,4905,3C7E,3FBE,4389,4980,3EE1,449A,39FA,3AA6,369C,472D,2C29,3E6C,47E6,3EC3,41B2,3FDB,43F6,4072,3583,3D07,3F5E,4858,49E2,3B2F,4836,3BC4,43DF,4D5B,4A14,344F,3B38,42CF,3C00,410F,38CA,43EF,3E21,3C6D,467A,382F,38CC,3A4B,383E,3B1F,4266,403D,4B44,31A8,3F6A,3EF9,417F,37BD,4643,49D3,3488,4AB3,4365,4BE7,48BC,44D3,4081,44DA,3F03,3E29,38F7,3A24,3DE1,3EEB,4832,4C63,388A,44C0,4342,402F,3D2E,43CA,3A18,3714,3703,3FBF,3332,34EB,3A94,3369,3B8B,3E9F,4AFE,4133,4171,3279,4598,3ECA,39A4,3F18,3A96,3F92,3768,42A6,409D,3D80,3A3B,40DC,3F31,418B,47BB,41CC,36F3,3D5B,48BC,46B1,4698,3E5C,44DB,46CD,4477,3BE4,3D4F,38EF,3662,3D9E,309C,2EBA,352D,4461,366A,4291,31D6,3875,3303,4459,4763,433C,46D4,3682,2F97,3A51,4774,4600,3846,2A61,3B6E,32F6,3DE1,4144,5004,41C8,3E76,418B,3960,3958,466D,4129,379F,4A5C,459B,3863,39B0,3F7C,3864,3D33,40BF,3B0E,43ED,4166,3F2A,3EF6,3707,3CD9,35AF,2ED1,40B0,3AB8,3670,3437,407C,3A8E,3069,3317,34B7,41AF,3F15,3335,36BB,430D,3DDE,3924,2EB3,3F73,2E22,375E,25B6,391E,3BBA,3AEF,3A60,3656,3B31,44C9,3B23,3862,3661,475C,3E28,37DE,3236,36DA,341C,40AA,3456,3F65,3224,3099,3B9E,3B97,382D,463F,32AF,36F6,336B,320F,32F6,32A5,3113,30D6,35C5,35FB,4001,3021,3528,35D5,2ABF,40F1,37D8,3AD9,32CA,39F3,2D33,3761,3674,2E03,2E0F,3C81,2B3D,3B08,34B3,2EB3,3AD4,2B1F,359F,2DF8,2E5B,33AD,2B5D,3064,2A4B,2F97,2EE1,2C75,2E6A,2B01,2B4E,3639,2D0B,2C7E,25FD,1F78,22A8,2742,2998,295E,23DA,274C,2B95,253D,298E,2A73,21EF,32CD,33A2,2FBD,2AF6,2888,2682,26A4,26B2,164A,284F,2813,2EDE,307E,2D4D,3324,2BA9,2C3E,2196,2CB7,1F9F,262F,1DF3,2BAB,2771,2DDC,2857,20A9,2D27,1F31,21F6,26CA,25CF,2D94,2B0B,2D43,2F40,30C2,230A,3000,2392,3705,2EC9,311E,2E1E,2CB1,20D4,3187,2A42,2530,1C32,2861,24D6,1FB8,1B35,1AD5,2A37,20D7,1B59,1ED6,1C73,22EB,1453,1D41,217D,242F,2357,2209,2332,111E,0832,141B,20F9,118C,1455,0EC4,19A0,1C9E,2382,230A,2FC9,2114,2DEA,29D8,29FD,2B75,33A7,2370,3141,29A9,2576,1BE2,2CCD,2D5D,29D9,2CB1,250D,1E05,2CCC,2915,3806,31CC,2CE4,2BA3,2684,254F,23CE,34D4,33F7,163C,28CB,212F,16EB,27FB,2836,2C22,3332,3221,3ABC,32D1,2927,2E4E,3A2F,27B4,2039,18D0,2CB5,359C,2C53,3635,3663,2523,3127,2F8F,3988,2C3C,2AEE,2EB5,1AC2,2EB9,2184,1978,22C1,1BAA,2766,2689,1C86,24DB,147C,2244,1F3C,2F72,1B41,1D4B,1CD4,255F,263B,11B1,10C9,F5EA,FCF1,F55A,FCE3,FB83,E4BE,E481,E30A,E0D8,E616,D575,E877,F8A3,0A23,FED7,0890,FC9D,EB74,DFB6,FA83,F493,0D76,1F94,0A6E,FE1F,157E,2561,306D,26A8,131E,1154,FB8C,00F0,F5BB,F9D3,FBCC,EA75,F916,EC18,D38D,F5E7,EABE,F197,E6F4,E3E8,DDCA,EE86,E611,F902,F380,04F3,0C85,04FB,F7D5,F261,FF18,002E,0F31,0E60,1564,15D0,15F7,FE61,1055,03F2,FEEB,08FB,F589,EEAD,067B,FDA3,FE24,FB38,0309,05DC,0FE1,0847,1142,0FF7,17BB,0A62,0202,FC57,012B,016F,CC39,DA4E,DEBB,E613,CEA1,DC93,CDDA,DBA5,DA19,D629,D911,E49A,EBB6,E58C,DE7B,D51D,D204,D08C,D3EA,CC58,D44A,D4A1,D83E,ED30,E455,DDAF,CF6B,DEB4,D6DD,D5BC,DA31,D789,DD40,D9A6,DC12,E54F,E968,D510,DA98,E4CF,EA32,E5B8,E791,D39A,D97E,D17F,CA76,CC37,D225,D599,EA85,DEDA,D78C,DD64,D5E0,D9A1,D6B6,D358,E575,DCBF,DA3E,D5D3,D141,C948,CC41,D3FF,C64C,D071,D36D,CB88,D0B7,D173,B739,D685,CE01,CAC9,CE71,CB4C,CC71,DF56,BF57,CDD1,D458,D9F8,CF08,CAC5,BFC3,C23D,B842,C23E,CB2B,C8A2,C617,CDB2,D0D1,CB11,CDDC,C6F8,C934,D30C,C9B6,D7E7,DB17,D857,DC27,DD19,D677,C7EB,D42F,D8BA,CD8D,D666,DBBE,D884,C85E,D547,BFE8,BA1F,CBB2,CDFF,D779,CF93,D67F,CBF7,D84B,B68C,BD8A,C772,C456,C703,C868,BEA5,BEAA,D3E1,C62C,D116,D327,C98C,C75F,C2AE,D115,CD42,D5D7,CFE2,CDD7,C902,D5DF,CEF3,D19E,D12D,C678,C6B2,CFB2,CE24,CCEE,C9B7,BE27,CD6F,B77F,C32C,CC7A,C7AD,CBDF,C386,D400,D0C5,BF6B,CBFF,C19E,C474,BD91,BE52,B419,C3F3,CADC,D238,C473,D08D,D5C9,C84F,CFDF,C69A,C1C7,CB76,CA90,C896,CF0B,CAE9,C6AD,C69C,C375,D53C,DB21,D127,D1E5,D08E,C43F,D006,BBA0,CCBD,CC46,C551,CE1E,C8EE,CA94,BC69,CEA4,CF0D,CE35,C66E,C5F6,BB4F,C8AA,C51C,C1C8,D1C0,C655,C403,C38D,C621,CD5F,C086,C44D,C21E,C849,BB3F,C694,C157,C68C,C303,C6B9,CBBA,D2C5,CE79,C7C1,CB38,BC15,BFF7,BC49,BD1A,B7C7,BED9,B793,C37B,BF29,C938,C91B,BB3B,C1F8,C81A,BBB8,BB7B,CB09,C2C0,C3F7,BE64,C87E,BEDA,BC27,B993,C2FE,BB3B,C256,BB33,CBC8,B9D5,CE85,C7D6,C4E3,C424,BC26,C103,C48D,CC57,C376,C226,C104,C6D2,C648,BC86,BB50,B7AA,BBAE,BD8C,B80C,B7CD,BA40,C705,BADB,B6A9,C573,C5EB,BF7B,C3BB,BFA5,BAE4,CC69,D37C,E402,D524,D35C,C43A,BC4D,C260,C809,BBDF,BFDE,BCC8,BC48,B310,D081,CE34,D844,DAFB,BD07,C1A9,B6D8,B2AD,B862,BECD,C72E,BDAA,C9B7,B430,C85B,B924,BFA7,C06B,B715,CA98,C114,BFAF,B927,B7F2,C1C2,C2BE,B297,BDC0,C459,C672,CC9B,C952,CA51,BE38,C2A0,BA5F,B657,BDAA,B902,C89B,B535,C39D,BB29,B789,C113,BCC7,C84C,C5B5,BFC3,BECE,CCA0,BE71,C496,C26A,CC24,C7F8,BE3D,B915,B4BA,B988,C3FB,C1A2,C5E3,CD58,CE00,C5E2,BCC3,BBC6,BAAF,B274,BE64,C8E3,C8F3,BBBB,BF2C,C0F2,C404,BF21,B6A9,B2EB,BB69,B9DC,BD98,C3A2,C74B,C3EF,C817,C032,C457,C377,C7C0,D2E0,BA1C,CE66,C25C,B71E,C3BF,BB3B,BDBD,BA49,C19C,BC9F,BAE6,BB6B,C32A,C077,BCB2,C973,C798,CBDD,C54F,B8F6,C68A,C722,C07A,B19D,C5A2,C867,BEB3,C229,BB0A,C138,C4C0,B4B9,C238,C1C0,C2BB,C0A1,C58A,BEF1,BD48,BB8D,C11F,B604,C910,BF34,B98E,C16A,B72C,BFEB,BEC9,C21E,BC36,AF70,AE5B,BD95,BF3B,B899,C6B7,C3A4,B148,BA5D,B5FD,CC39,CC7A,BB43,B4E6,BE67,BD6B,BE31,CB19,BD75,CFE5,B726,BF08,B7EB,B6E7,BAD7,BA62,BA1E,B4BF,B8ED,B87C,BCD5,BC95,BEEE,CB0F,C2CE,C986,C5E1,B774,C56A,C32B,BD16,BC0E,BFBC,B634,C9F6,CDC4,C7B3,C72E,B87C,BD6B,C441,C15A,C1D1,B8EF,C031,BA02,BAE1,B947,BB43,BE3C,BFFA,CD79,C5D7,C0EF,C07D,BAEE,BB55,BD40,B4CA,B7B6,BDC4,C678,BBC2,BE0C,C6CF,B906,B9AC,B7F9,BBA8,BC4D,B628,BAB6,C16C,C57F,C16B,B957,C17C,B60D,BE3D,BE48,C5AB,BCF9,B543,C08D,BC2E,C190,B68F,C6F2,C613,C0FB,C9C4,C7A4,BFAC,BFD2,C0E8,C832,CD82,BFA3,C1B2,D068,C26C,B9F7,C525,C4C5,C0D6,BFA8,BE55,C968,C703,CA1A,C767,C148,C847,C02C,C24D,C096,BE06,C4C5,B723,C7DE,B316,D14D,C79F,C63E,B8EE,C692,BF36,C022,B916,B66D,CC2C,B83F,BFAC,CA4F,C031,C3DF,C376,C6FA,BFE6,CC31,CBB2,D17C,D427,C41F,C293,C33F,C334,C2BF,C2E6,BF65,C06F,BDC8,B9A4,CDE6,CE5F,C8F2,C455,C592,C8A6,C4AC,C58A,BA32,BCB7,B41A,B7A5,C7E5,CBD5,CD07,BF02,C852,BDDE,BBED,C4C0,BF53,C9D7,C5AA,CC4E,BDCB,C990,C6F7,C4D1,C312,C21A,C1D7,C89F,C663,C4ED,C79F,BD1F,C414,CA88,C5A0,C0FE,BBAA,BA99,C2E9,CE6D,C621,BE7D,C972,D86B,CB89,CE84,C985,D339,C417,CB8D,CCF1,C7E7,CCE5,CD82,CC5E,CD2D,BB88,D02E,C055,CA10,C1EE,BD4A,BD37,CA54,C4F0,CA16,C368,C169,C9B9,C3DB,BC94,CE38,C76A,C799,C8DE,C4A3,D4AB,CD08,D101,C592,BD9B,CED7,C203,CF06,D286,D3A9,C0BE,C289,CBF2,D1D4,C1A8,C8EB,CAC9,C12B,D1D2,C155,BF47,CD86,D3DD,C8DE,C238,C27C,CD30,D236,D2EA,D314,CC2A,CFA5,D017,C9EE,C72F,D15A,CC1F,D069,D89C,D6BC,D9A3,CE41,E06A,CE40,C0B4,DBDB,EBEB,DCEE,CDF8,D0A7,E11D,D30E,DF51,D977,DD02,DAB8,D5D6,D40D,D30A,DB9C,D337,C9B7,D238,C945,CDF5,D61D,D1DF,D827,E1E1,D793,D92E,E196,DC3B,D787,D300,DBD9,DABF,D10C,D2D9,D37B,D7E0,DFE2,CE1F,E2A9,D480,D955,CDF3,CF11,D97F,DBA3,DD9E,DC07,D825,DF0D,D8B1,D1A6,DD26,D8E6,CF98,D4ED,CF8D,C742,D431,D7DB,CECC,DD27,CF3D,D6B2,D9FE,DAEA,DA9F,DC14,EFDB,DB55,E95E,ECE6,E357,DF65,E625,E907,E5FA,E1BC,F1E5,EB49,E1EA,D86D,E5A6,E279,DE01,DA62,E35B,E290,ED7C,ED26,EDF5,F50D,EC7E,E599,E90D,E0D6,E2E1,E607,DC47,D9A1,E081,D1F2,D298,D322,D1DE,D479,E05A,E613,DC15,C947,D037,E2FE,DA1D,E190,DA2B,D987,DB1D,D44E,D0FC,CCEA,D226,E034,CAF0,DDB3,C960,D6D5,E202,EB03,F450,E64A,E971,D0A8,D27F,CB93,D449,D150,D275,D06F,D06E,D344,CF82,E1B2,D0FD,D54B,CFDC,C4B5,CD8A,D2F8,CAF0,CF65,D21F,D079,C375,DEBC,DBB9,D187,E0B2,EBC9,E9F5,DC03,D46A,C801,CA7E,E056,DF98,E8E1,E96D,DEA0,D1BD,D062,ED53,DE46,DE87,E93F,F79E,F794,05FB,04D2,0A0D,0579,0A57,057E,19DC,2760,1DEA,1AC9,216B,1185,0433,EAFF,F63F,F656,0474,1013,12B3,11C9,0C8A,EEED,ECFC,EE96,F546,ED04,E093,E1F8,D7DC,E2DD,F94D,FF4B,0749,087D,04CB,10CB,1077,0F69,144F,18A9,0A14,16E4,136B,1DDD,1B99,1B97,12B9,0AA8,07B1,0714,F4F5,FE91,